#include "model_data.h";

const unsigned char dense_model_tflite[] = {
  0x1c, 0x00, 0x00, 0x00, 0x54, 0x46, 0x4c, 0x33, 0x14, 0x00, 0x20, 0x00,
  0x1c, 0x00, 0x18, 0x00, 0x14, 0x00, 0x10, 0x00, 0x0c, 0x00, 0x00, 0x00,
  0x08, 0x00, 0x04, 0x00, 0x14, 0x00, 0x00, 0x00, 0x1c, 0x00, 0x00, 0x00,
  0x94, 0x00, 0x00, 0x00, 0xec, 0x00, 0x00, 0x00, 0xb8, 0x28, 0x00, 0x00,
  0xc8, 0x28, 0x00, 0x00, 0x78, 0x2f, 0x00, 0x00, 0x03, 0x00, 0x00, 0x00,
  0x01, 0x00, 0x00, 0x00, 0x10, 0x00, 0x00, 0x00, 0x00, 0x00, 0x0a, 0x00,
  0x10, 0x00, 0x0c, 0x00, 0x08, 0x00, 0x04, 0x00, 0x0a, 0x00, 0x00, 0x00,
  0x0c, 0x00, 0x00, 0x00, 0x1c, 0x00, 0x00, 0x00, 0x38, 0x00, 0x00, 0x00,
  0x0f, 0x00, 0x00, 0x00, 0x73, 0x65, 0x72, 0x76, 0x69, 0x6e, 0x67, 0x5f,
  0x64, 0x65, 0x66, 0x61, 0x75, 0x6c, 0x74, 0x00, 0x01, 0x00, 0x00, 0x00,
  0x04, 0x00, 0x00, 0x00, 0x94, 0xff, 0xff, 0xff, 0x0c, 0x00, 0x00, 0x00,
  0x04, 0x00, 0x00, 0x00, 0x07, 0x00, 0x00, 0x00, 0x64, 0x65, 0x6e, 0x73,
  0x65, 0x5f, 0x32, 0x00, 0x01, 0x00, 0x00, 0x00, 0x04, 0x00, 0x00, 0x00,
  0x36, 0xd7, 0xff, 0xff, 0x04, 0x00, 0x00, 0x00, 0x0d, 0x00, 0x00, 0x00,
  0x66, 0x6c, 0x61, 0x74, 0x74, 0x65, 0x6e, 0x5f, 0x69, 0x6e, 0x70, 0x75,
  0x74, 0x00, 0x00, 0x00, 0x02, 0x00, 0x00, 0x00, 0x34, 0x00, 0x00, 0x00,
  0x04, 0x00, 0x00, 0x00, 0xdc, 0xff, 0xff, 0xff, 0x0f, 0x00, 0x00, 0x00,
  0x04, 0x00, 0x00, 0x00, 0x13, 0x00, 0x00, 0x00, 0x43, 0x4f, 0x4e, 0x56,
  0x45, 0x52, 0x53, 0x49, 0x4f, 0x4e, 0x5f, 0x4d, 0x45, 0x54, 0x41, 0x44,
  0x41, 0x54, 0x41, 0x00, 0x08, 0x00, 0x0c, 0x00, 0x08, 0x00, 0x04, 0x00,
  0x08, 0x00, 0x00, 0x00, 0x0e, 0x00, 0x00, 0x00, 0x04, 0x00, 0x00, 0x00,
  0x13, 0x00, 0x00, 0x00, 0x6d, 0x69, 0x6e, 0x5f, 0x72, 0x75, 0x6e, 0x74,
  0x69, 0x6d, 0x65, 0x5f, 0x76, 0x65, 0x72, 0x73, 0x69, 0x6f, 0x6e, 0x00,
  0x10, 0x00, 0x00, 0x00, 0xc8, 0x27, 0x00, 0x00, 0xc0, 0x27, 0x00, 0x00,
  0xb0, 0x26, 0x00, 0x00, 0x90, 0x26, 0x00, 0x00, 0x00, 0x26, 0x00, 0x00,
  0xe8, 0x25, 0x00, 0x00, 0xd8, 0x22, 0x00, 0x00, 0xc8, 0x02, 0x00, 0x00,
  0xb8, 0x00, 0x00, 0x00, 0xb0, 0x00, 0x00, 0x00, 0xa8, 0x00, 0x00, 0x00,
  0xa0, 0x00, 0x00, 0x00, 0x98, 0x00, 0x00, 0x00, 0x90, 0x00, 0x00, 0x00,
  0x70, 0x00, 0x00, 0x00, 0x04, 0x00, 0x00, 0x00, 0xf2, 0xd7, 0xff, 0xff,
  0x04, 0x00, 0x00, 0x00, 0x5c, 0x00, 0x00, 0x00, 0x0c, 0x00, 0x00, 0x00,
  0x08, 0x00, 0x0e, 0x00, 0x08, 0x00, 0x04, 0x00, 0x08, 0x00, 0x00, 0x00,
  0x14, 0x00, 0x00, 0x00, 0x2c, 0x00, 0x00, 0x00, 0x00, 0x00, 0x0a, 0x00,
  0x0c, 0x00, 0x08, 0x00, 0x00, 0x00, 0x07, 0x00, 0x0a, 0x00, 0x00, 0x00,
  0x00, 0x00, 0x00, 0x01, 0x04, 0x00, 0x00, 0x00, 0x00, 0x00, 0x00, 0x00,
  0x00, 0x00, 0x0a, 0x00, 0x10, 0x00, 0x0c, 0x00, 0x08, 0x00, 0x04, 0x00,
  0x0a, 0x00, 0x00, 0x00, 0x02, 0x00, 0x00, 0x00, 0x02, 0x00, 0x00, 0x00,
  0x04, 0x00, 0x00, 0x00, 0x06, 0x00, 0x00, 0x00, 0x32, 0x2e, 0x31, 0x33,
  0x2e, 0x30, 0x00, 0x00, 0x5a, 0xd8, 0xff, 0xff, 0x04, 0x00, 0x00, 0x00,
  0x10, 0x00, 0x00, 0x00, 0x31, 0x2e, 0x35, 0x2e, 0x30, 0x00, 0x00, 0x00,
  0x00, 0x00, 0x00, 0x00, 0x00, 0x00, 0x00, 0x00, 0x6c, 0xd2, 0xff, 0xff,
  0x70, 0xd2, 0xff, 0xff, 0x74, 0xd2, 0xff, 0xff, 0x78, 0xd2, 0xff, 0xff,
  0x7c, 0xd2, 0xff, 0xff, 0x8a, 0xd8, 0xff, 0xff, 0x04, 0x00, 0x00, 0x00,
  0x00, 0x02, 0x00, 0x00, 0x45, 0x98, 0x39, 0x3f, 0xf9, 0xe3, 0x6a, 0x3e,
  0x47, 0x8a, 0xdc, 0xbe, 0xb5, 0xb4, 0xb4, 0xbe, 0x4b, 0x9d, 0x90, 0x3d,
  0xbf, 0x3c, 0x84, 0x3f, 0xf1, 0x6b, 0xcc, 0x3e, 0x72, 0x84, 0xe4, 0x3e,
  0x98, 0xfa, 0x03, 0xbf, 0x4e, 0x14, 0x89, 0x3f, 0xb6, 0xb8, 0xad, 0xbf,
  0x6a, 0xb6, 0xc7, 0x3e, 0x40, 0x02, 0xbb, 0xbf, 0x3d, 0xe0, 0x05, 0x40,
  0x8e, 0xff, 0x23, 0x3f, 0x31, 0xc6, 0x74, 0xbf, 0xc7, 0xd3, 0x38, 0xbf,
  0x31, 0xf1, 0xa3, 0xbe, 0x0b, 0x21, 0xb9, 0xbf, 0x2b, 0x10, 0x53, 0x3f,
  0x79, 0xa5, 0x09, 0xbf, 0x87, 0xd4, 0x08, 0x3e, 0x43, 0xeb, 0xb1, 0x3f,
  0xa9, 0x43, 0x80, 0xbf, 0xaa, 0xc2, 0x91, 0xbe, 0x8e, 0x7c, 0x3f, 0x3f,
  0x9a, 0xaf, 0x82, 0xbe, 0x3a, 0x14, 0x22, 0x3e, 0x23, 0xe1, 0x5d, 0x3f,
  0xaa, 0xee, 0x0a, 0x3f, 0x3f, 0x67, 0x58, 0x3f, 0xcf, 0xaa, 0x28, 0xbe,
  0x8b, 0x01, 0x4c, 0xbf, 0x9d, 0x50, 0xcc, 0xbf, 0x3b, 0x70, 0x57, 0x3f,
  0x1d, 0x0b, 0x5e, 0xbf, 0x44, 0x08, 0x16, 0x3f, 0x51, 0xc4, 0x3d, 0xbf,
  0x23, 0xcf, 0xd4, 0xbf, 0xc0, 0xe7, 0x1b, 0x3f, 0x6c, 0x09, 0x31, 0xbe,
  0x9a, 0x0c, 0xa2, 0xbf, 0x5f, 0x29, 0x6f, 0x3f, 0x45, 0x7a, 0x08, 0xc0,
  0x88, 0x4b, 0x49, 0x3f, 0xc7, 0xa0, 0xec, 0xbf, 0xb4, 0x9f, 0xf8, 0x3e,
  0xe6, 0x14, 0x8a, 0x3f, 0x77, 0x21, 0xed, 0x3e, 0x31, 0x5b, 0x99, 0xbe,
  0x28, 0x5e, 0xd9, 0x3e, 0x17, 0x03, 0x95, 0xbf, 0x91, 0x2f, 0x38, 0xbe,
  0x48, 0xe4, 0xc5, 0xbe, 0xd9, 0xcd, 0x22, 0xc0, 0xd5, 0xd0, 0x85, 0x3f,
  0xaf, 0xbb, 0xd2, 0x3e, 0x92, 0xe3, 0x16, 0x3f, 0x46, 0x33, 0xc9, 0x3e,
  0x55, 0x55, 0xbe, 0x3e, 0x31, 0x3d, 0x05, 0xc0, 0xad, 0x03, 0xee, 0xbf,
  0x4c, 0x6f, 0x1e, 0xbe, 0xa1, 0x3c, 0xd3, 0xbd, 0x21, 0x9c, 0xbd, 0x3e,
  0x9e, 0xd3, 0x01, 0x3f, 0x78, 0xa8, 0x69, 0x3e, 0xc3, 0xfb, 0xb6, 0xbd,
  0x2c, 0xa9, 0x88, 0xbf, 0xd3, 0xe0, 0xad, 0x3e, 0x27, 0x59, 0xde, 0x3e,
  0x62, 0x20, 0x05, 0xbf, 0xf2, 0xb9, 0xb1, 0x3e, 0x12, 0x5b, 0x79, 0x3d,
  0x13, 0x1e, 0xab, 0x3e, 0x87, 0x91, 0xa0, 0xbd, 0x7d, 0xfb, 0x1f, 0x3d,
  0x35, 0x95, 0x89, 0x3e, 0xb6, 0xdd, 0xea, 0xbe, 0xa9, 0x9b, 0x4c, 0xbe,
  0xd2, 0x61, 0xa8, 0x3e, 0x00, 0x25, 0x14, 0xc0, 0x8f, 0x4e, 0x97, 0xbe,
  0xfd, 0xc7, 0x40, 0x3e, 0x22, 0x5a, 0xf9, 0xbe, 0x87, 0xdc, 0x73, 0xbe,
  0xc4, 0x15, 0xbf, 0x3f, 0x1c, 0x90, 0x89, 0x3e, 0x3a, 0x97, 0x2d, 0x3f,
  0x14, 0x52, 0x3a, 0xc0, 0x4a, 0x43, 0x39, 0xbf, 0x80, 0xa6, 0xce, 0xbf,
  0xab, 0xc6, 0x89, 0x3e, 0x3b, 0x51, 0xa6, 0x3f, 0x14, 0xbd, 0xb8, 0xbe,
  0xfd, 0x79, 0xe2, 0xbe, 0x76, 0xb2, 0x04, 0xbe, 0x71, 0x7a, 0x32, 0x40,
  0x1f, 0xea, 0xba, 0x3e, 0x6a, 0x3f, 0x37, 0xbd, 0x23, 0xa3, 0xb8, 0x3f,
  0xb2, 0x47, 0xe4, 0xbc, 0x4f, 0x69, 0x03, 0xbf, 0x0d, 0xb7, 0xd7, 0xbf,
  0xdc, 0xf5, 0x94, 0x3e, 0x22, 0x5a, 0xdf, 0xbf, 0xf5, 0x7a, 0xba, 0x3e,
  0xa0, 0xae, 0x4e, 0x3f, 0x78, 0x07, 0x22, 0x3f, 0x1e, 0x10, 0xc0, 0xbe,
  0xf9, 0xf5, 0xb0, 0xbf, 0xa6, 0x2a, 0x4e, 0xc0, 0x34, 0x1b, 0x27, 0x3f,
  0x37, 0xb0, 0xc0, 0x3f, 0xd5, 0x7a, 0xf1, 0x3e, 0xbe, 0x6d, 0x13, 0xbf,
  0x93, 0xa7, 0x89, 0x3f, 0x35, 0x22, 0x9d, 0xbe, 0x00, 0xb0, 0xbc, 0xbf,
  0x25, 0x5a, 0xbf, 0x3e, 0x8d, 0x4b, 0xa0, 0xbf, 0x1e, 0x57, 0x17, 0xc0,
  0xb2, 0xe7, 0x02, 0x3f, 0x05, 0xeb, 0xe4, 0xbf, 0xdb, 0xd1, 0x61, 0x3f,
  0x0c, 0x8a, 0xc9, 0x3e, 0xbe, 0xfd, 0xb9, 0x3e, 0x65, 0x23, 0x7e, 0xbe,
  0x96, 0xda, 0xff, 0xff, 0x04, 0x00, 0x00, 0x00, 0x00, 0x20, 0x00, 0x00,
  0x4f, 0xf5, 0x90, 0x3d, 0xe1, 0x3b, 0xe4, 0xbe, 0x47, 0xef, 0x53, 0x3f,
  0x30, 0x2c, 0x40, 0x3d, 0x26, 0xf7, 0x86, 0x3e, 0xae, 0x2b, 0xbc, 0x3e,
  0xd6, 0x6f, 0xdb, 0x3a, 0x00, 0x47, 0x6e, 0xbd, 0x76, 0xe1, 0x89, 0x3e,
  0x8b, 0x46, 0x6f, 0x3d, 0xc5, 0x30, 0xca, 0xbd, 0xa4, 0x95, 0xfd, 0x3d,
  0x9d, 0x74, 0x3d, 0x3f, 0x68, 0x27, 0x89, 0x3e, 0xb5, 0x49, 0x1b, 0x3f,
  0x48, 0x30, 0x2d, 0xbe, 0xa4, 0x5b, 0x93, 0x3e, 0x62, 0x01, 0xd6, 0x3e,
  0xfc, 0xb5, 0x25, 0xbe, 0xa5, 0x61, 0x1e, 0xbf, 0xf9, 0x11, 0x25, 0x3e,
  0xfe, 0x87, 0xe2, 0xbd, 0x97, 0x24, 0xea, 0x3e, 0x8c, 0x09, 0x4d, 0x3e,
  0x72, 0xad, 0x61, 0x3e, 0x90, 0x73, 0xb2, 0x3e, 0xbe, 0x13, 0x93, 0x3f,
  0x07, 0x47, 0x28, 0xbe, 0xe3, 0xd9, 0x6d, 0xbe, 0x92, 0x85, 0xab, 0x3e,
  0xb6, 0x80, 0xe0, 0xbd, 0xe2, 0xda, 0x34, 0x3f, 0x64, 0xfe, 0x56, 0x3f,
  0xb6, 0x22, 0x43, 0xbe, 0xd7, 0xa6, 0x15, 0x3f, 0xc5, 0xc6, 0x1f, 0x3f,
  0x83, 0xf3, 0xb7, 0x3e, 0x2d, 0x3f, 0x19, 0xbe, 0x7e, 0xda, 0x89, 0x3e,
  0x19, 0x59, 0x63, 0x3e, 0x8a, 0xc7, 0x6b, 0xbe, 0x47, 0x5f, 0x16, 0x3e,
  0x0f, 0x4e, 0x98, 0xbe, 0x5c, 0x91, 0x38, 0xbe, 0x27, 0x51, 0x87, 0x3e,
  0x54, 0xcc, 0x2d, 0x3f, 0x64, 0x09, 0x03, 0xbd, 0xab, 0xb5, 0x4a, 0xbf,
  0x19, 0x24, 0x7a, 0x3c, 0xce, 0x74, 0x41, 0x3f, 0x83, 0xe1, 0x8e, 0xbe,
  0x6d, 0xb7, 0xc5, 0x3e, 0x8b, 0x6c, 0xb5, 0x3e, 0x6a, 0x97, 0x7f, 0x3e,
  0x8f, 0xad, 0x8b, 0x3e, 0xfe, 0x1c, 0x1d, 0x3f, 0x60, 0x79, 0x0f, 0xbf,
  0x3f, 0xd2, 0x83, 0x3f, 0x07, 0x2b, 0x82, 0x3f, 0xec, 0xaa, 0xe3, 0x3e,
  0xce, 0x70, 0xfa, 0xbd, 0xd9, 0xdd, 0xc8, 0x3e, 0x91, 0x97, 0x43, 0x3f,
  0x7c, 0x6f, 0xd0, 0xbc, 0xcd, 0x69, 0x40, 0x3e, 0xcb, 0x92, 0x17, 0x3f,
  0x9a, 0x2d, 0xae, 0xbe, 0xe5, 0x64, 0x01, 0x3f, 0x27, 0x1e, 0x62, 0xbf,
  0xfe, 0x76, 0x45, 0xbf, 0x2d, 0x0a, 0xaa, 0xbe, 0xe0, 0x3c, 0xb5, 0x3d,
  0xaa, 0xaa, 0xa9, 0x3e, 0xfb, 0x58, 0xb4, 0xbf, 0x77, 0x9e, 0xa5, 0x3d,
  0x3f, 0xaf, 0x47, 0xbe, 0x23, 0xed, 0xbe, 0xbd, 0x7c, 0xb3, 0xdf, 0x3d,
  0x63, 0x16, 0x07, 0xbd, 0x3a, 0x50, 0x8c, 0xbe, 0xe3, 0xaa, 0x6c, 0x3e,
  0xd6, 0xe1, 0xb8, 0xbf, 0xe4, 0x8b, 0x2a, 0x3e, 0xe4, 0x72, 0x5c, 0x3e,
  0x15, 0xc7, 0xd2, 0xbf, 0xce, 0x92, 0xe6, 0x3d, 0x1e, 0x3d, 0xa5, 0xbd,
  0xab, 0xc9, 0x56, 0x3f, 0xa4, 0xdf, 0xf2, 0x3e, 0x7b, 0xc4, 0xd4, 0xbd,
  0x1f, 0xc3, 0x36, 0xc0, 0xfd, 0x77, 0xaf, 0xbc, 0xf5, 0xe0, 0x03, 0xbe,
  0x4e, 0xa5, 0xc2, 0xbf, 0xd4, 0x87, 0xc3, 0x3c, 0xa0, 0xef, 0x8c, 0xbe,
  0x66, 0xda, 0x15, 0xc0, 0x83, 0x1d, 0x47, 0xbc, 0xbf, 0x56, 0xfb, 0xbe,
  0xc7, 0x91, 0x6c, 0xbe, 0x0f, 0xa5, 0x10, 0x3f, 0xa7, 0xf6, 0x54, 0xbd,
  0x06, 0x63, 0x34, 0x3e, 0xf7, 0x8d, 0x76, 0xbf, 0x55, 0x45, 0xfb, 0x3e,
  0x8a, 0x8e, 0x97, 0x3f, 0x40, 0xb7, 0x1f, 0xbe, 0x74, 0xc3, 0xd3, 0x3e,
  0x6b, 0x69, 0x74, 0xbf, 0xe4, 0xba, 0x6f, 0xbf, 0x64, 0xed, 0x1d, 0x3e,
  0xeb, 0x62, 0x9c, 0xbf, 0x5a, 0x3f, 0x92, 0x3e, 0x12, 0x3b, 0x48, 0xc0,
  0x0c, 0x3e, 0x69, 0xbd, 0x7b, 0x07, 0x19, 0xbd, 0x8b, 0xb7, 0xbd, 0xbe,
  0x64, 0x5f, 0xb6, 0xbe, 0x78, 0xab, 0x33, 0xbe, 0x97, 0x4e, 0xbc, 0xbf,
  0xd0, 0x0e, 0x52, 0xbf, 0xba, 0xa2, 0x97, 0xc0, 0x63, 0x01, 0x92, 0xbe,
  0x20, 0x15, 0xab, 0xbf, 0x3c, 0xc7, 0x43, 0x3e, 0x33, 0x91, 0xd3, 0x3e,
  0xb1, 0xc0, 0x56, 0xbe, 0xf6, 0x36, 0x7d, 0xbe, 0xa7, 0x21, 0x18, 0x3f,
  0x39, 0x27, 0x0b, 0x3e, 0xec, 0x5e, 0xd6, 0x3e, 0xc4, 0x7c, 0xc1, 0x3d,
  0x71, 0x5b, 0x81, 0xbc, 0x71, 0x74, 0x41, 0x3e, 0xb2, 0x98, 0x0d, 0xbe,
  0xb7, 0xce, 0x52, 0x3d, 0x4c, 0x31, 0x27, 0x3d, 0xda, 0xf1, 0xb0, 0x3d,
  0x11, 0x69, 0x09, 0x3e, 0xbe, 0x42, 0x0f, 0xbf, 0x1f, 0xf1, 0x5a, 0x3e,
  0x59, 0xb5, 0xae, 0xbe, 0x8d, 0x19, 0x6c, 0x3f, 0xed, 0xed, 0x9f, 0xbc,
  0xd5, 0x8c, 0xc1, 0xbe, 0xc6, 0xcf, 0xc8, 0x3e, 0x41, 0x85, 0x87, 0x3d,
  0x8e, 0x02, 0x1f, 0x3e, 0x77, 0xd4, 0xcd, 0xbe, 0x05, 0xcc, 0xdf, 0xbe,
  0x03, 0xe7, 0x96, 0x3d, 0xd4, 0x30, 0xc8, 0xbe, 0x57, 0x8e, 0xfe, 0xbe,
  0x01, 0xed, 0x39, 0x3c, 0xf2, 0xba, 0x25, 0x3d, 0x00, 0x7b, 0x92, 0xbe,
  0x6f, 0x81, 0x7f, 0xbe, 0x58, 0xef, 0xe1, 0x3e, 0xb5, 0x24, 0x36, 0xbe,
  0xda, 0x87, 0x61, 0x3f, 0xed, 0xc3, 0x2d, 0xbf, 0xbd, 0x2d, 0x2e, 0xbe,
  0xb0, 0x57, 0x20, 0x3f, 0xe4, 0x63, 0x35, 0x3f, 0xe5, 0x3b, 0x6b, 0xbf,
  0x3e, 0x55, 0xbb, 0xbe, 0x57, 0x86, 0xd9, 0x3d, 0x0b, 0x8c, 0xaf, 0xbd,
  0x61, 0xc7, 0x7b, 0xbe, 0xb8, 0xe7, 0x48, 0x3f, 0xf2, 0x03, 0x1b, 0xbf,
  0x1a, 0x40, 0x90, 0x3d, 0xd6, 0xef, 0x19, 0x3f, 0x51, 0x7c, 0x38, 0x3f,
  0x8d, 0x4c, 0x4c, 0xbe, 0x1a, 0x12, 0xe1, 0xbe, 0x3b, 0x1c, 0xd9, 0xbe,
  0xf5, 0x87, 0xc9, 0x3e, 0xa9, 0xde, 0xc0, 0xbe, 0x45, 0x25, 0x49, 0x3f,
  0x88, 0xd7, 0x26, 0x3f, 0x2d, 0x73, 0x22, 0x3e, 0xf9, 0x8a, 0xb9, 0xbe,
  0xa8, 0x03, 0xee, 0x3e, 0xd1, 0xd8, 0x5d, 0xbe, 0x2c, 0x71, 0x95, 0x3e,
  0x21, 0xfc, 0xfe, 0x3c, 0x7b, 0x2e, 0xed, 0x3e, 0x35, 0xbd, 0x14, 0xbd,
  0xc8, 0x9b, 0x98, 0x3e, 0x6f, 0xb5, 0xb1, 0xbe, 0xc8, 0x23, 0xe8, 0x3d,
  0xb9, 0xe7, 0x1a, 0xbe, 0x42, 0xde, 0x05, 0xbd, 0xb1, 0xa0, 0xe3, 0x3e,
  0xa2, 0x55, 0x67, 0x3e, 0xb9, 0x21, 0xa5, 0xbd, 0x68, 0xe1, 0x7f, 0x3e,
  0x79, 0xf5, 0x25, 0x3d, 0x96, 0xfd, 0x0c, 0x3e, 0xb1, 0xfa, 0xab, 0xbe,
  0x98, 0xd5, 0x8d, 0xbe, 0x4f, 0x09, 0xb0, 0x3d, 0x64, 0x61, 0x8f, 0xbe,
  0x8a, 0x99, 0x54, 0xbe, 0x7e, 0xfb, 0x61, 0x3e, 0xca, 0xec, 0x4e, 0x3e,
  0x38, 0x8a, 0x02, 0xbe, 0xc5, 0x76, 0x44, 0x3e, 0x2a, 0x22, 0x5b, 0x3e,
  0xbd, 0xb9, 0x44, 0xbe, 0x78, 0x75, 0xa9, 0xbe, 0x59, 0xc7, 0x7e, 0x3e,
  0xab, 0x66, 0x69, 0x3d, 0xe3, 0x92, 0xbd, 0x3c, 0x2b, 0x4c, 0x81, 0x3e,
  0x37, 0x0f, 0x64, 0x3e, 0x1f, 0xc4, 0x17, 0x3e, 0xc6, 0xc4, 0xaa, 0x3d,
  0xb6, 0x5d, 0x6c, 0x3d, 0x87, 0x86, 0xf6, 0xbe, 0xd5, 0x76, 0xba, 0x3d,
  0xbd, 0xff, 0x15, 0xbe, 0x1b, 0x8e, 0x6d, 0xbe, 0xed, 0x1c, 0x50, 0xbe,
  0xc4, 0x12, 0x0b, 0xbd, 0xef, 0x97, 0x07, 0x3e, 0xb6, 0x21, 0xe0, 0x3e,
  0xc7, 0xff, 0x1b, 0xbd, 0xe5, 0x41, 0xa5, 0x3c, 0xa5, 0x77, 0x0a, 0xbe,
  0x44, 0x70, 0x0e, 0x3e, 0xd7, 0x6f, 0x4b, 0xbe, 0xb7, 0xbb, 0x36, 0x3e,
  0xf1, 0x8d, 0xb7, 0xbe, 0xc9, 0x68, 0xc9, 0x3d, 0x9e, 0x5e, 0xbb, 0xbd,
  0xd7, 0x89, 0x26, 0xbe, 0xfc, 0x65, 0x06, 0xbe, 0x24, 0x85, 0x03, 0xbf,
  0xd9, 0x4e, 0x65, 0xbe, 0x56, 0x4e, 0xc4, 0x3c, 0x59, 0xcb, 0x78, 0xbe,
  0x1e, 0xed, 0x4b, 0x3e, 0xe6, 0xae, 0x95, 0x3d, 0x6a, 0x47, 0x18, 0xbe,
  0x66, 0x6f, 0x8b, 0x3e, 0x3a, 0xdb, 0xdd, 0x3d, 0x7d, 0x1d, 0xe6, 0xbe,
  0xb0, 0xb2, 0x07, 0xbd, 0x72, 0xfc, 0x47, 0x3e, 0x47, 0xd8, 0x0d, 0x3e,
  0x47, 0xed, 0xc0, 0xbd, 0x4d, 0xe6, 0xde, 0x3d, 0x8f, 0x3d, 0x12, 0xbe,
  0x73, 0xd7, 0x9a, 0x3e, 0x59, 0x1b, 0x18, 0xbe, 0x6d, 0xb0, 0xe1, 0xbe,
  0xb8, 0xff, 0x46, 0xbf, 0x99, 0xdf, 0xcf, 0x3e, 0x92, 0xf7, 0x57, 0xbe,
  0xa0, 0xe2, 0xe9, 0xbe, 0x9b, 0x70, 0xa6, 0x3e, 0x24, 0x3a, 0x42, 0x3f,
  0x52, 0xef, 0x67, 0xbf, 0x16, 0x3a, 0x0d, 0xbe, 0x3a, 0x63, 0x48, 0x3e,
  0x64, 0xe9, 0x43, 0x3f, 0xaf, 0x0a, 0xad, 0xbf, 0xd9, 0x67, 0x14, 0x3d,
  0xeb, 0xf3, 0x26, 0xbf, 0x98, 0x67, 0x29, 0x3f, 0x63, 0x2d, 0x1e, 0x3e,
  0x17, 0x1e, 0x14, 0xbf, 0x2a, 0xdf, 0x40, 0x3f, 0x58, 0x69, 0x20, 0x3d,
  0x9c, 0x7b, 0x35, 0xbe, 0xf7, 0x40, 0x2f, 0x3f, 0x48, 0x3f, 0x07, 0xbf,
  0x04, 0xbf, 0x47, 0xbe, 0x19, 0x1a, 0xd8, 0x3e, 0xc1, 0xe2, 0x1d, 0xbf,
  0x05, 0x19, 0x1c, 0x3f, 0xe9, 0x70, 0x4e, 0x3f, 0x65, 0x78, 0x0f, 0x3f,
  0x9a, 0xe2, 0x9e, 0xbe, 0xd3, 0xe9, 0x57, 0x3f, 0x29, 0x20, 0xb8, 0xbd,
  0x81, 0x78, 0x8b, 0xbe, 0x8e, 0xa4, 0x2a, 0x3f, 0x06, 0xc4, 0x84, 0xbf,
  0xae, 0xb8, 0xc6, 0xbe, 0xcf, 0xd6, 0xbb, 0xbd, 0xc4, 0x5c, 0xba, 0x3e,
  0xfa, 0x72, 0x86, 0xbf, 0x39, 0x2d, 0x1e, 0xbf, 0x7c, 0xc8, 0xe1, 0x3e,
  0x6c, 0x69, 0x59, 0xbf, 0x06, 0xfe, 0xa4, 0x3e, 0xb8, 0xe3, 0x1b, 0xbf,
  0x4e, 0x6d, 0x0e, 0xbf, 0xf0, 0x64, 0x06, 0xbf, 0x31, 0x4c, 0xcc, 0xbe,
  0x85, 0xaf, 0xec, 0xbb, 0xb9, 0x53, 0x83, 0x3e, 0xae, 0x72, 0xa6, 0xbc,
  0xdf, 0xbb, 0x82, 0x3e, 0x6e, 0x48, 0x63, 0xbf, 0x44, 0xd6, 0x3c, 0xbf,
  0x69, 0xf5, 0xd2, 0xbd, 0x05, 0x81, 0x27, 0x3f, 0x1f, 0x4b, 0x2b, 0xbf,
  0x37, 0xa6, 0xbf, 0xbb, 0xe6, 0xb9, 0x54, 0xbe, 0xd5, 0xae, 0xd4, 0xbe,
  0x7a, 0x4e, 0x32, 0xbf, 0x49, 0x7f, 0x0e, 0x3f, 0x48, 0x41, 0xc8, 0xbf,
  0xb1, 0xab, 0x20, 0xbd, 0x5a, 0x61, 0x9d, 0xbe, 0xdc, 0xdf, 0x15, 0x3f,
  0xd9, 0x8c, 0x97, 0x3d, 0xac, 0x84, 0x9a, 0x3e, 0x1a, 0xd8, 0xc3, 0x3e,
  0x2e, 0xb3, 0x0a, 0x3f, 0x46, 0xb8, 0x8a, 0x3e, 0xf7, 0x6b, 0x2d, 0x3e,
  0x19, 0xb8, 0xb2, 0x3d, 0x9c, 0xbd, 0x30, 0x3f, 0x3f, 0x25, 0x1c, 0xc0,
  0x9f, 0xb7, 0xba, 0xbe, 0x06, 0x2d, 0xbf, 0x3e, 0xcd, 0xef, 0x8c, 0xbf,
  0x3a, 0xc7, 0x6a, 0xbf, 0x66, 0xa2, 0x65, 0x3d, 0x9c, 0x87, 0x00, 0xc0,
  0x37, 0x0d, 0xe3, 0xbe, 0xf9, 0xce, 0xbc, 0x3f, 0xd3, 0x4b, 0x13, 0x3f,
  0xd9, 0x67, 0xb5, 0xbe, 0x30, 0xfd, 0x02, 0x3f, 0x19, 0x70, 0x10, 0xbc,
  0xf7, 0x22, 0x2b, 0x3e, 0x60, 0xe1, 0x5e, 0x3f, 0x85, 0xee, 0x13, 0xbc,
  0xed, 0x1f, 0x88, 0xba, 0x73, 0x29, 0x8f, 0x3d, 0x77, 0x1c, 0x45, 0x3e,
  0xce, 0xa0, 0x19, 0xbe, 0xbb, 0x0b, 0x15, 0x3f, 0x75, 0x99, 0x2a, 0x3e,
  0xbc, 0x21, 0x5f, 0xbf, 0x8d, 0xf4, 0x4f, 0x3e, 0x50, 0xaf, 0x12, 0xbe,
  0x7e, 0x5b, 0xe5, 0xbf, 0x60, 0xa2, 0x5c, 0xbd, 0xa0, 0x73, 0xd9, 0x3e,
  0x96, 0x6f, 0xcb, 0x3e, 0x4c, 0x22, 0xcc, 0xbe, 0xd1, 0x90, 0xa2, 0x3e,
  0x8d, 0x44, 0x43, 0x3f, 0xf5, 0x92, 0xd7, 0x3e, 0x68, 0xb5, 0x43, 0xbe,
  0x55, 0x77, 0xef, 0xbe, 0xd8, 0x68, 0x24, 0x3f, 0x74, 0xc2, 0x57, 0xc0,
  0xd3, 0xe0, 0x80, 0xbe, 0x51, 0x24, 0xf1, 0xbf, 0xa3, 0xa5, 0xab, 0xbe,
  0x61, 0x61, 0x55, 0x3e, 0x4c, 0x4f, 0xe7, 0xbf, 0xf0, 0x04, 0x86, 0xbf,
  0x62, 0x72, 0xf0, 0xbf, 0x70, 0x44, 0x02, 0x3f, 0x7c, 0x24, 0xc0, 0xbe,
  0x01, 0x1f, 0x35, 0x3f, 0x30, 0xc9, 0xd9, 0xbf, 0x8e, 0x5e, 0xae, 0xbf,
  0x12, 0x49, 0xdd, 0xbf, 0x2f, 0xac, 0xf8, 0x3e, 0x34, 0x41, 0x19, 0xbd,
  0xf9, 0x4f, 0x0a, 0xbf, 0x35, 0xe9, 0x88, 0xbf, 0xd5, 0x30, 0x3b, 0x3d,
  0x83, 0x06, 0x12, 0xbf, 0x42, 0xef, 0x32, 0x3d, 0x8d, 0xcf, 0xdc, 0xbf,
  0x52, 0xc9, 0xb9, 0xbe, 0x3e, 0x57, 0x5b, 0xbf, 0xdf, 0xf3, 0xd8, 0xbf,
  0x7c, 0x10, 0x9e, 0xbe, 0xc1, 0xaa, 0x83, 0xbd, 0x5d, 0xfe, 0xa7, 0x3e,
  0x7a, 0xdc, 0x3f, 0x3f, 0x00, 0xdf, 0x84, 0x3e, 0xf4, 0x60, 0x72, 0x3d,
  0x2a, 0x43, 0x1f, 0x3f, 0xda, 0x36, 0x11, 0x3f, 0x89, 0x1b, 0x4f, 0xbf,
  0xf0, 0x7f, 0x65, 0x3f, 0x7a, 0x75, 0xc4, 0x3e, 0xcd, 0x0b, 0xcb, 0x3e,
  0x8b, 0xcd, 0x00, 0xbf, 0x35, 0x01, 0xf6, 0x3e, 0x5b, 0xff, 0x11, 0xbf,
  0x31, 0xee, 0x68, 0xbe, 0xe3, 0x3a, 0x3d, 0x3e, 0x1d, 0x3d, 0x0c, 0xbf,
  0x05, 0x7b, 0xa5, 0x3c, 0x77, 0xeb, 0xdb, 0x3d, 0x60, 0x7d, 0xb7, 0xbe,
  0x87, 0x83, 0x2e, 0x3d, 0x73, 0x58, 0x46, 0xbd, 0xfd, 0x71, 0x59, 0xc0,
  0x9c, 0x14, 0x29, 0x3e, 0x8a, 0x29, 0x0f, 0xbe, 0xc5, 0x8d, 0x8e, 0xbe,
  0x0e, 0x69, 0x1e, 0x3e, 0x2d, 0x77, 0x53, 0x3f, 0xe4, 0x1a, 0xab, 0xbf,
  0xf0, 0xd5, 0x05, 0xbf, 0x69, 0xec, 0x7b, 0xbe, 0x06, 0xa5, 0x34, 0x3f,
  0xd8, 0x59, 0x74, 0x3f, 0xe9, 0xe2, 0xc9, 0xbe, 0x6a, 0x56, 0x72, 0xbf,
  0x6e, 0x14, 0x08, 0x3e, 0x56, 0x84, 0xb5, 0x3e, 0xfe, 0x8a, 0x94, 0xc0,
  0x10, 0x72, 0x1b, 0x3f, 0x9c, 0x7f, 0x95, 0x3e, 0x90, 0x56, 0x9b, 0x3f,
  0xc5, 0x1f, 0x53, 0x3c, 0x88, 0x2f, 0xc6, 0xbe, 0xb4, 0x8f, 0x1f, 0x3f,
  0x77, 0x1c, 0xb0, 0xbd, 0x13, 0x6e, 0x7f, 0x3f, 0xa8, 0xc0, 0xaf, 0xbe,
  0x24, 0x34, 0x01, 0x3f, 0xb8, 0x14, 0x2c, 0x3f, 0x04, 0x51, 0x93, 0x3f,
  0x35, 0x6b, 0x48, 0x3e, 0x42, 0x86, 0x01, 0x3f, 0xdc, 0xf9, 0x3d, 0x3e,
  0x4f, 0xbb, 0x0b, 0x3e, 0x2f, 0x7f, 0x17, 0x3f, 0x64, 0x7d, 0xb4, 0x3e,
  0x36, 0xf7, 0xc1, 0xbf, 0xd9, 0xdc, 0x55, 0x3f, 0x68, 0xa3, 0xc6, 0xbe,
  0x02, 0x40, 0x97, 0xbe, 0x3f, 0x17, 0x1a, 0x3f, 0x7a, 0x8b, 0xe0, 0xbe,
  0xc4, 0x13, 0x4b, 0xbf, 0xd1, 0xec, 0xf2, 0xbe, 0xcf, 0x04, 0x20, 0x3f,
  0xb9, 0x3c, 0x95, 0xbe, 0x73, 0x1f, 0x79, 0xbe, 0xaa, 0x60, 0x8b, 0x3f,
  0x4d, 0x8b, 0x2e, 0xbe, 0xdf, 0x47, 0xc5, 0xbe, 0xbd, 0x96, 0x88, 0xbe,
  0x0a, 0x8b, 0xd2, 0xbd, 0x70, 0x89, 0x18, 0xbe, 0xf9, 0x7b, 0x02, 0x3e,
  0xb4, 0xf9, 0x2d, 0xbe, 0x07, 0x7e, 0xc7, 0x3e, 0x23, 0x24, 0xec, 0xbe,
  0x46, 0x45, 0x60, 0xbf, 0xe7, 0x80, 0x8f, 0x3f, 0x60, 0x34, 0xb6, 0x3e,
  0x93, 0xd8, 0xd1, 0x3e, 0x29, 0x5c, 0x51, 0x3f, 0x81, 0xe1, 0xa8, 0x3e,
  0x41, 0x40, 0xa1, 0x3e, 0x33, 0xda, 0x87, 0x3e, 0x6d, 0x70, 0x4e, 0xbe,
  0xfe, 0xe2, 0x90, 0xbe, 0x7f, 0x1d, 0xe2, 0x3e, 0x60, 0x7b, 0x21, 0xbf,
  0x9e, 0xa0, 0xb6, 0xbf, 0x3c, 0xbd, 0x2c, 0x3f, 0xb7, 0x55, 0x5b, 0x3d,
  0x01, 0xd1, 0xe4, 0xbd, 0x27, 0xea, 0xef, 0xbd, 0xf3, 0x03, 0x85, 0x3f,
  0x85, 0x15, 0x03, 0xbf, 0xd9, 0xd8, 0x11, 0xbf, 0xde, 0x4d, 0x2e, 0x3f,
  0xc5, 0x5e, 0xbd, 0xbe, 0xbe, 0xdc, 0x8a, 0xbd, 0x36, 0x5d, 0xe1, 0xbd,
  0x30, 0x09, 0xc0, 0xbe, 0x71, 0x26, 0x3c, 0x3f, 0xab, 0xfd, 0x96, 0xbe,
  0x97, 0x0b, 0x18, 0xbf, 0xfc, 0xca, 0x62, 0x3f, 0xaa, 0x39, 0x4f, 0xbe,
  0x6d, 0xbb, 0x82, 0xbd, 0x3a, 0x39, 0xb6, 0xbe, 0xac, 0x76, 0x5c, 0x3e,
  0x70, 0x72, 0xfd, 0xbe, 0xca, 0x9b, 0xbc, 0x3f, 0x68, 0xc1, 0xd6, 0xbe,
  0xe1, 0x0c, 0x20, 0xbf, 0x11, 0x10, 0x64, 0xbf, 0xa2, 0xe7, 0x0a, 0xbf,
  0xeb, 0x63, 0x32, 0xbd, 0x70, 0x3b, 0x0b, 0x3f, 0x17, 0xac, 0x15, 0xbf,
  0x31, 0xbf, 0xab, 0xbe, 0x58, 0x23, 0x01, 0xbe, 0x8a, 0xb4, 0x84, 0x3e,
  0x8e, 0x12, 0x4f, 0xbe, 0xb3, 0x74, 0x14, 0x3f, 0xf2, 0xcc, 0x42, 0x3e,
  0xb2, 0x76, 0x31, 0x3e, 0x31, 0x8e, 0xe0, 0x3e, 0xc4, 0x9a, 0xd6, 0x3d,
  0x3a, 0x0c, 0xa1, 0x3e, 0xe8, 0x88, 0x65, 0x3e, 0x78, 0x40, 0x59, 0x3e,
  0x23, 0x9f, 0x75, 0xbe, 0x2f, 0x92, 0x98, 0xbd, 0x81, 0x19, 0xcf, 0x3e,
  0xe6, 0xe2, 0x00, 0xbf, 0xc0, 0x04, 0x03, 0x3f, 0x8f, 0x4c, 0xfc, 0xbd,
  0xd5, 0x1f, 0xf7, 0xbe, 0x88, 0xe7, 0xe1, 0x3c, 0xfb, 0x99, 0x20, 0x3e,
  0x77, 0x6a, 0x5f, 0x3e, 0x94, 0x0b, 0xda, 0xbc, 0xbd, 0xc3, 0x2e, 0xbf,
  0x00, 0x58, 0x5a, 0xbe, 0x5e, 0x6d, 0xd9, 0xbd, 0x9d, 0x13, 0x15, 0xbf,
  0xc4, 0x74, 0x5e, 0x3d, 0x41, 0x4f, 0x7f, 0xbe, 0x1a, 0xf6, 0x4c, 0x3e,
  0x15, 0xcf, 0xe3, 0xbd, 0x6e, 0x55, 0x8c, 0x3e, 0x68, 0x85, 0xe3, 0xbd,
  0x64, 0x3b, 0x87, 0x3f, 0x19, 0x0c, 0x4c, 0xbe, 0xec, 0xc5, 0xbf, 0x3e,
  0xe0, 0xc1, 0xbb, 0x3e, 0x87, 0x53, 0x02, 0x3f, 0x66, 0xdd, 0xfb, 0xbe,
  0x51, 0x52, 0xd6, 0xbe, 0xa6, 0x20, 0x80, 0x3c, 0xd0, 0x02, 0xcb, 0xbd,
  0xde, 0xd0, 0x2f, 0x3e, 0x44, 0x08, 0x1c, 0x3f, 0x92, 0x80, 0xd7, 0xbd,
  0x08, 0xf7, 0x08, 0x3e, 0x0e, 0xae, 0x1a, 0x3e, 0xd1, 0xbd, 0x6e, 0x3d,
  0x3f, 0x90, 0x9b, 0x3d, 0x86, 0x8a, 0x0a, 0xbf, 0xcb, 0xaa, 0x2c, 0xbf,
  0xa2, 0xa6, 0x92, 0x3d, 0x45, 0x0f, 0xd1, 0x3d, 0x94, 0xc9, 0x13, 0x3f,
  0xcf, 0x9c, 0xec, 0x3d, 0x47, 0x2e, 0x1e, 0x3e, 0x70, 0xd4, 0x0a, 0xbf,
  0x6a, 0x11, 0x94, 0x3e, 0xcc, 0x2b, 0x26, 0xbd, 0x78, 0xc9, 0x7a, 0x3e,
  0x66, 0xf9, 0x8d, 0xbe, 0xbf, 0x2c, 0xed, 0x3e, 0x84, 0xfd, 0xb9, 0xbd,
  0x05, 0x4c, 0xa4, 0x3e, 0x17, 0x48, 0x24, 0xbf, 0xa0, 0x91, 0x0e, 0x3e,
  0x00, 0x76, 0xaa, 0xbe, 0x8e, 0xac, 0x4b, 0xbe, 0xa7, 0x8f, 0x9a, 0x3e,
  0xc1, 0xa5, 0x8a, 0xbe, 0xef, 0x52, 0x0a, 0x3f, 0x6e, 0x9c, 0x26, 0x3f,
  0x24, 0x59, 0x96, 0x3f, 0x2d, 0x30, 0x42, 0xbf, 0x5b, 0xd7, 0xbd, 0x3e,
  0x7c, 0xc1, 0x0d, 0x3c, 0x8e, 0x3a, 0xc0, 0xbf, 0x0c, 0xf1, 0x18, 0x3d,
  0xa1, 0x40, 0xaa, 0xbf, 0x8c, 0x4f, 0x56, 0xbd, 0xe5, 0x39, 0x29, 0x3e,
  0x0a, 0xf7, 0xc0, 0x3e, 0xfa, 0xf1, 0x87, 0x3d, 0x27, 0x3d, 0x1d, 0x40,
  0xf8, 0xda, 0x80, 0x3d, 0x34, 0xb9, 0x83, 0xbf, 0xde, 0x90, 0x76, 0x3f,
  0xee, 0x6d, 0x46, 0xbf, 0xbf, 0x79, 0x64, 0xbe, 0x3e, 0x2f, 0x95, 0x3d,
  0xdf, 0x23, 0x38, 0xbf, 0x67, 0x3a, 0x27, 0xbf, 0xeb, 0x29, 0x05, 0x3f,
  0x93, 0x93, 0x0f, 0xbf, 0x38, 0x49, 0x81, 0x3f, 0xef, 0x47, 0x11, 0x3f,
  0x18, 0x1a, 0x03, 0xbf, 0xe2, 0xf4, 0x62, 0xbf, 0x95, 0x7c, 0x41, 0x3f,
  0xc1, 0x97, 0x1c, 0xbf, 0xf6, 0x67, 0x13, 0xc0, 0xf0, 0xd8, 0x5d, 0x3e,
  0x29, 0xc7, 0xb4, 0x3e, 0x54, 0xb8, 0xed, 0xbe, 0x65, 0xac, 0x70, 0xbf,
  0x09, 0xa2, 0x81, 0x3f, 0x43, 0x08, 0xc0, 0xbe, 0x5f, 0x26, 0xcb, 0x3d,
  0x92, 0x78, 0xd1, 0xbe, 0x44, 0x82, 0xc8, 0xbe, 0xa5, 0x25, 0xcb, 0x3e,
  0x27, 0xc7, 0x1d, 0xbf, 0xdf, 0x18, 0x4d, 0xbf, 0xe2, 0x17, 0x00, 0x3f,
  0x09, 0x43, 0x71, 0xbe, 0xfb, 0x64, 0x25, 0x3f, 0x3f, 0x8d, 0x95, 0x3e,
  0x0a, 0x64, 0x3e, 0xbf, 0x2d, 0xa7, 0x8a, 0xbf, 0x48, 0xd8, 0x46, 0x3f,
  0xae, 0xa0, 0x23, 0xbf, 0xd0, 0x21, 0xa3, 0x3f, 0xbc, 0x93, 0x5b, 0x3f,
  0xe0, 0x95, 0xe2, 0x3d, 0x0f, 0x78, 0xf6, 0xbe, 0xbf, 0xfc, 0xe8, 0x3f,
  0x7d, 0x72, 0xb8, 0xbf, 0xb9, 0x09, 0x13, 0xbf, 0x25, 0x6c, 0x30, 0xbe,
  0x27, 0xb6, 0x1b, 0x3f, 0x4b, 0xc3, 0x9f, 0x3d, 0x7a, 0xcb, 0x8d, 0x3f,
  0xed, 0xee, 0x8d, 0x3e, 0xa0, 0x24, 0xbc, 0x3e, 0xd4, 0xe0, 0x50, 0x3f,
  0xa5, 0xb8, 0xf8, 0x3e, 0xb2, 0xc1, 0x0f, 0x3f, 0xc9, 0x63, 0xaf, 0xbd,
  0xff, 0xee, 0x3e, 0x3f, 0x67, 0xc8, 0xca, 0x3e, 0xae, 0x9d, 0x42, 0xbe,
  0x17, 0x80, 0xab, 0xbe, 0x7f, 0x12, 0x39, 0x3e, 0x6b, 0x69, 0x30, 0x3f,
  0x39, 0x4d, 0x56, 0x3e, 0x39, 0xa8, 0x83, 0xbd, 0xef, 0x67, 0x65, 0x3f,
  0x29, 0x47, 0x59, 0x3f, 0xc4, 0x8f, 0x18, 0x3d, 0xaf, 0x3b, 0x9d, 0x3f,
  0xff, 0xa3, 0x58, 0xbe, 0x19, 0xca, 0x1f, 0xbf, 0xf3, 0xf6, 0x1b, 0x3f,
  0x00, 0xc1, 0x81, 0x3f, 0xdb, 0x25, 0xfb, 0x3d, 0xb2, 0x84, 0x8d, 0x3f,
  0x3a, 0x49, 0x5a, 0xbf, 0xcd, 0xd7, 0x77, 0x3e, 0x6d, 0x6f, 0x68, 0x3f,
  0xaa, 0x54, 0x1b, 0x3f, 0x3c, 0x8b, 0x2f, 0x3e, 0x74, 0x61, 0xe9, 0x3d,
  0x67, 0x0d, 0x3f, 0xbf, 0x52, 0xef, 0xf9, 0x3e, 0x56, 0xa9, 0xc3, 0x3d,
  0x6d, 0xaa, 0xc1, 0x3e, 0x9f, 0x6e, 0x0b, 0x3f, 0xba, 0x08, 0xfb, 0xbe,
  0xac, 0x5e, 0x47, 0x3f, 0x95, 0xc8, 0x35, 0x3e, 0x5b, 0x68, 0x79, 0x3e,
  0x66, 0x8b, 0xff, 0x3e, 0xd8, 0x0c, 0x8a, 0x3f, 0xd0, 0x7f, 0x65, 0x3f,
  0xff, 0x1c, 0xf4, 0x3e, 0xea, 0x99, 0x91, 0x3e, 0xb8, 0xc7, 0x17, 0x3f,
  0x6b, 0x53, 0xc8, 0x3d, 0xf2, 0x41, 0x51, 0xbe, 0x0d, 0xcb, 0x27, 0xbe,
  0xb7, 0xeb, 0xb1, 0x3d, 0x30, 0xe1, 0x52, 0xbc, 0xbb, 0xef, 0x9f, 0xbd,
  0xe7, 0x63, 0x50, 0x3f, 0xf0, 0x81, 0x85, 0xbf, 0x44, 0x82, 0x6c, 0x3f,
  0xf4, 0x7c, 0xf7, 0xbd, 0x8f, 0xe6, 0xad, 0x3d, 0x8f, 0xc4, 0x26, 0x3f,
  0x08, 0x91, 0x1e, 0x3f, 0x9e, 0x09, 0x9c, 0x3c, 0x77, 0x77, 0xb7, 0x3e,
  0x51, 0xd6, 0x6f, 0x3f, 0xe5, 0xbd, 0x9c, 0x3f, 0xfd, 0x82, 0x06, 0x3f,
  0xec, 0x75, 0xc4, 0x3e, 0x2d, 0x4e, 0x8a, 0x3f, 0xcb, 0xde, 0x1d, 0x3e,
  0xb3, 0xbc, 0x5b, 0xbf, 0xd4, 0x52, 0x47, 0xbf, 0x68, 0x18, 0x41, 0xbf,
  0x7c, 0xa4, 0xe3, 0xbe, 0x11, 0x13, 0x74, 0xbe, 0x61, 0xa2, 0xd4, 0x3e,
  0x7c, 0x21, 0x19, 0x3f, 0xcd, 0xd8, 0x2f, 0xbf, 0x75, 0xfe, 0x9d, 0x3e,
  0xcc, 0x0f, 0xd2, 0x3e, 0x5e, 0x3e, 0x5c, 0x3f, 0x55, 0xf9, 0xcf, 0xbe,
  0x5b, 0x92, 0x2e, 0x3f, 0x72, 0xfb, 0x33, 0x3e, 0x9c, 0x3f, 0x33, 0xbf,
  0x9a, 0x9a, 0x9a, 0xbf, 0x01, 0x6d, 0x0b, 0xbf, 0x41, 0x63, 0x03, 0x3f,
  0xa7, 0x08, 0x3e, 0x3f, 0x49, 0x7a, 0xae, 0x3f, 0x92, 0x83, 0x8a, 0x3c,
  0x2d, 0x46, 0x8b, 0x3e, 0xb6, 0xd0, 0x8e, 0x3f, 0x59, 0xfd, 0xd1, 0xbe,
  0x41, 0x2d, 0x97, 0xbf, 0xe3, 0x6d, 0x05, 0xbe, 0x68, 0xa9, 0x38, 0xbf,
  0x74, 0x8e, 0xc3, 0x3f, 0x3b, 0xb0, 0x8a, 0x3e, 0xb4, 0xe8, 0x02, 0xbf,
  0xb0, 0x39, 0x20, 0x3f, 0xdc, 0x63, 0x83, 0x3f, 0xf3, 0xb3, 0x3b, 0x3f,
  0xfa, 0x6b, 0x06, 0x3f, 0x57, 0x7d, 0x82, 0x3e, 0x93, 0x42, 0xaa, 0xbf,
  0x85, 0x75, 0x72, 0xbd, 0x97, 0x1f, 0x10, 0x3f, 0xbf, 0x55, 0x8e, 0xbf,
  0x12, 0x52, 0x0a, 0x3e, 0xca, 0xc2, 0x17, 0xbe, 0x99, 0x92, 0x7f, 0x3f,
  0x40, 0x1b, 0x25, 0x3e, 0x79, 0x1c, 0xa4, 0xbe, 0x1a, 0x62, 0x7f, 0x3d,
  0x0a, 0x1b, 0x29, 0x3f, 0xeb, 0xae, 0x1f, 0xbe, 0x3b, 0x58, 0xa0, 0x3f,
  0xcd, 0x86, 0x39, 0x3f, 0x6d, 0x3b, 0x3b, 0xbf, 0x4c, 0xeb, 0x25, 0x3f,
  0xac, 0x7a, 0x30, 0x3d, 0x94, 0x97, 0xbe, 0xbe, 0x7a, 0x89, 0xcf, 0x3f,
  0xbe, 0x90, 0x83, 0x3f, 0x7e, 0x3b, 0x25, 0xbd, 0x0f, 0xa9, 0x3e, 0x3e,
  0xa7, 0x3b, 0x9a, 0x3e, 0xf1, 0x81, 0x5c, 0x3f, 0x47, 0x1c, 0x10, 0xbe,
  0x00, 0x8d, 0xa7, 0x3e, 0xc8, 0x7a, 0x1e, 0x3f, 0xfc, 0x10, 0xa0, 0x3e,
  0xe3, 0x6f, 0x49, 0x3e, 0x25, 0xd1, 0x31, 0xbf, 0xfc, 0xb5, 0x27, 0xbf,
  0x59, 0xf9, 0x25, 0x3e, 0x43, 0x38, 0x2f, 0xbe, 0xe4, 0x21, 0xaa, 0xbf,
  0x18, 0x9d, 0xef, 0x3e, 0x41, 0x75, 0x5e, 0x3e, 0x2b, 0x7c, 0x49, 0xbd,
  0x99, 0x02, 0x0e, 0x3f, 0xca, 0xe5, 0x61, 0xbc, 0x08, 0xdb, 0x94, 0x3e,
  0xce, 0xd4, 0x79, 0x3f, 0x6e, 0x2e, 0x8f, 0x3e, 0x9d, 0x0d, 0x90, 0x3e,
  0xeb, 0x18, 0x9f, 0xbe, 0x41, 0x95, 0x6f, 0xbf, 0xa5, 0xe0, 0x1a, 0xc0,
  0x8c, 0xfc, 0x9d, 0x3e, 0xe0, 0x8a, 0x0f, 0xbf, 0xd1, 0x86, 0x07, 0xc0,
  0x74, 0x62, 0x8c, 0x3e, 0x31, 0x15, 0xda, 0xbe, 0x04, 0x55, 0x88, 0xbe,
  0x84, 0x55, 0x9c, 0xbe, 0xe6, 0x79, 0x0e, 0xc0, 0x8f, 0x53, 0xf4, 0xbe,
  0xdb, 0x4c, 0xd5, 0xbe, 0xee, 0x06, 0x70, 0x3f, 0x1c, 0x0f, 0xb9, 0xbf,
  0x88, 0x37, 0x86, 0xbe, 0x44, 0x8f, 0xd0, 0x3e, 0xa3, 0x34, 0x31, 0x3e,
  0xe3, 0xf2, 0x0c, 0x3f, 0x63, 0x0c, 0x88, 0x3e, 0x3e, 0x56, 0xef, 0x3e,
  0x14, 0x3c, 0xd5, 0xbf, 0x87, 0xbb, 0x87, 0x3e, 0xd2, 0x51, 0xdf, 0x3e,
  0xb4, 0x52, 0x34, 0xc0, 0x28, 0x2d, 0x15, 0x3f, 0x4e, 0x88, 0x21, 0xbe,
  0xd7, 0xeb, 0x2d, 0x3f, 0xf6, 0xf3, 0x18, 0x3f, 0xb0, 0xdd, 0xc7, 0xbe,
  0xc8, 0x7f, 0xb8, 0x3e, 0x1b, 0x5b, 0x2f, 0xbf, 0x5f, 0x26, 0x65, 0x3e,
  0x63, 0x91, 0x3b, 0x3f, 0xda, 0x55, 0x0e, 0x3f, 0x99, 0x23, 0xaa, 0xbe,
  0x6f, 0xaa, 0xd3, 0x3d, 0x3c, 0x36, 0x1c, 0xbe, 0x18, 0x60, 0xaa, 0xbd,
  0x10, 0x6a, 0xff, 0x3e, 0x6e, 0xa5, 0xe3, 0x3e, 0x98, 0x6e, 0x94, 0xbe,
  0x75, 0x26, 0x4a, 0x3d, 0x50, 0x28, 0x17, 0x3f, 0xdc, 0xaa, 0x17, 0xbd,
  0x2c, 0xea, 0x24, 0x3e, 0xc9, 0xe1, 0x18, 0x3e, 0xc6, 0x59, 0xbf, 0x3c,
  0x35, 0x88, 0x37, 0xbf, 0xed, 0xf0, 0x0d, 0x3f, 0x55, 0x0d, 0x8a, 0x3e,
  0x0b, 0x13, 0x3d, 0x3e, 0x68, 0x77, 0x02, 0xbf, 0x55, 0x73, 0xa2, 0x3e,
  0x32, 0x9d, 0xe3, 0x3e, 0x2f, 0x40, 0x44, 0xc0, 0x93, 0x00, 0x2e, 0x3e,
  0x46, 0x81, 0x9a, 0x3e, 0xf8, 0x3a, 0x94, 0xbe, 0xe8, 0x6a, 0x8c, 0xbf,
  0x05, 0x6b, 0x90, 0xbf, 0x75, 0xef, 0x6a, 0xbf, 0x96, 0x89, 0x20, 0xbf,
  0xef, 0x92, 0x29, 0x3e, 0x98, 0x2b, 0x6f, 0x3e, 0x28, 0x97, 0xbc, 0xbd,
  0x9a, 0xf0, 0x3a, 0xbf, 0xdf, 0x0e, 0x44, 0xbc, 0x22, 0xd9, 0x5a, 0x3e,
  0xd0, 0x47, 0x19, 0x3f, 0x38, 0xb7, 0xe7, 0x3e, 0x08, 0x7f, 0xe0, 0x3e,
  0x97, 0xe6, 0x64, 0xc0, 0xd9, 0xed, 0xa1, 0x3e, 0x64, 0x3b, 0x6c, 0xbf,
  0xba, 0x44, 0x46, 0x3e, 0xed, 0xb6, 0x11, 0x3f, 0x76, 0xff, 0x1c, 0xc0,
  0x9e, 0x95, 0xc5, 0xbf, 0xb1, 0xdc, 0xc4, 0x3e, 0x2e, 0x0e, 0x50, 0xbf,
  0x42, 0xed, 0x8e, 0xbf, 0x73, 0xe1, 0x3a, 0xbf, 0xd3, 0x61, 0xb1, 0x3e,
  0xee, 0x1d, 0x2a, 0xbf, 0xad, 0x19, 0xaf, 0xbe, 0xd1, 0x97, 0x16, 0x3f,
  0x25, 0x59, 0x1b, 0xbf, 0xeb, 0x63, 0x08, 0xbe, 0x5a, 0xd8, 0xfc, 0xbe,
  0x8b, 0xf0, 0xd8, 0x3e, 0x78, 0xb7, 0x5b, 0xc0, 0xcd, 0xf8, 0xfb, 0xbe,
  0x50, 0x64, 0x6c, 0xbf, 0x70, 0xb8, 0xdb, 0x3e, 0xa1, 0x62, 0x21, 0xc0,
  0x7a, 0xea, 0xb2, 0xbf, 0x2f, 0x63, 0xdf, 0xbf, 0xc2, 0x3a, 0x7b, 0xbf,
  0xbb, 0x14, 0xaf, 0x3e, 0x86, 0xbd, 0xac, 0x3d, 0x67, 0x60, 0x8d, 0x3e,
  0xf1, 0xcd, 0x1c, 0xbf, 0x9c, 0x74, 0xe6, 0xc0, 0x47, 0xea, 0x0f, 0xc0,
  0xf9, 0x5b, 0xbb, 0x3e, 0x4e, 0x08, 0xc5, 0x3e, 0x7d, 0x7e, 0x59, 0xbf,
  0xa3, 0x57, 0xc1, 0xbf, 0x04, 0x4d, 0x45, 0x3f, 0x16, 0xbe, 0x29, 0x3f,
  0x9f, 0x17, 0x35, 0xbe, 0xbe, 0x8b, 0x4d, 0xbe, 0xc6, 0xe1, 0xbd, 0x3e,
  0x29, 0xa4, 0x14, 0xbf, 0x0a, 0x2e, 0xaa, 0xbe, 0x3c, 0x3b, 0xd0, 0xbe,
  0x80, 0xd1, 0x00, 0x3f, 0xe9, 0xe5, 0xa4, 0x3e, 0xfe, 0xb8, 0xc1, 0xbe,
  0x96, 0xac, 0x45, 0x3f, 0xd8, 0x40, 0x24, 0x3e, 0x7e, 0x9a, 0x8c, 0xbe,
  0xdd, 0x79, 0x52, 0x3d, 0x0a, 0x20, 0x96, 0xbe, 0x91, 0x4f, 0x88, 0xbe,
  0x54, 0xed, 0x84, 0xbd, 0x57, 0x70, 0x22, 0x3e, 0x62, 0xa2, 0x7c, 0x3e,
  0x08, 0xa9, 0x85, 0xbd, 0x88, 0x82, 0x19, 0xbf, 0x20, 0x78, 0xa2, 0x3f,
  0xfc, 0x06, 0x0f, 0x3f, 0x05, 0x0c, 0x23, 0x3f, 0x37, 0x4a, 0x20, 0x3f,
  0x03, 0x9a, 0xda, 0x3e, 0x25, 0x7c, 0xfb, 0x3d, 0xb7, 0x65, 0xd7, 0x3e,
  0xce, 0x1e, 0x6a, 0x3e, 0x7c, 0x22, 0x1a, 0xbf, 0x03, 0xb1, 0xa5, 0x3e,
  0x3b, 0x40, 0x14, 0xbf, 0xc5, 0xf1, 0x6a, 0xbf, 0x10, 0x8b, 0xbd, 0x3e,
  0x54, 0x77, 0x6b, 0xbe, 0xf1, 0x83, 0x21, 0xbe, 0x7c, 0xa0, 0x43, 0xbe,
  0xdf, 0x0b, 0x62, 0x3f, 0x3b, 0x95, 0x30, 0xbd, 0x3a, 0x81, 0xff, 0xbe,
  0xc0, 0x67, 0xf2, 0x3e, 0x09, 0x26, 0x04, 0xbe, 0x46, 0x06, 0x9d, 0xbe,
  0xe7, 0xf3, 0xfe, 0xbc, 0x13, 0x95, 0x22, 0xbe, 0x77, 0x83, 0x2b, 0x3e,
  0xe1, 0x77, 0x12, 0xbe, 0x08, 0xd3, 0x5a, 0xbf, 0x63, 0x2e, 0x15, 0x3f,
  0x8b, 0xb6, 0xfb, 0x3d, 0xda, 0xec, 0xbb, 0xbe, 0xc9, 0xcd, 0xb3, 0xbe,
  0x6a, 0x61, 0xb3, 0x3e, 0x3e, 0xf5, 0xf6, 0xbe, 0x5f, 0xfe, 0x99, 0x3f,
  0xb9, 0x99, 0x9c, 0x3e, 0x27, 0xd5, 0x32, 0xbf, 0xa0, 0xb6, 0x2c, 0xbf,
  0xd5, 0x70, 0x8b, 0xbd, 0xc9, 0x3f, 0x05, 0x3f, 0x83, 0x33, 0x17, 0x3f,
  0x53, 0x6c, 0x89, 0xbe, 0x19, 0xd7, 0xa5, 0x3d, 0xf3, 0x07, 0xde, 0x3c,
  0x96, 0xf7, 0xf8, 0x3e, 0x39, 0xd3, 0x40, 0xbd, 0x75, 0xd9, 0x0f, 0xbf,
  0x42, 0x97, 0x05, 0x3f, 0xaf, 0x4d, 0x1d, 0xbb, 0xd8, 0x5b, 0x9c, 0x3d,
  0x66, 0xc9, 0xef, 0x3e, 0x39, 0xde, 0x5d, 0x3e, 0x60, 0x4f, 0xeb, 0xbe,
  0x81, 0xbb, 0xee, 0xbf, 0x2a, 0x76, 0x11, 0x3e, 0x55, 0x21, 0x57, 0xbe,
  0x3d, 0xed, 0xa5, 0xbf, 0x17, 0xbe, 0xbf, 0xbe, 0xd6, 0xb2, 0x5b, 0xbf,
  0xad, 0x34, 0x60, 0xbf, 0xa8, 0x3b, 0x7e, 0xbd, 0xaf, 0x67, 0xf1, 0xbe,
  0x25, 0x8a, 0xc2, 0x3e, 0x0e, 0x31, 0x53, 0x3e, 0xe3, 0xfb, 0x4e, 0xbf,
  0x36, 0x7b, 0xba, 0x3e, 0x69, 0xb8, 0xa4, 0x3e, 0x8a, 0xa7, 0xe7, 0x3e,
  0x5c, 0xf0, 0x16, 0x3f, 0x8b, 0xce, 0x23, 0x3f, 0xe3, 0x1d, 0x8b, 0xbf,
  0x15, 0x39, 0xec, 0x3e, 0x73, 0x28, 0xa1, 0xbd, 0xf9, 0x27, 0xe0, 0x3d,
  0xa6, 0xa2, 0x96, 0x3e, 0x68, 0x23, 0x0b, 0xc0, 0x18, 0xea, 0xfd, 0xbf,
  0x26, 0x5c, 0xfd, 0x3e, 0x48, 0x20, 0x9a, 0xbf, 0xb4, 0xf9, 0x98, 0xbe,
  0xbb, 0xc3, 0xee, 0xbe, 0x2f, 0x6a, 0x00, 0x3f, 0xd3, 0x98, 0x0f, 0xbf,
  0x54, 0xe0, 0xa3, 0xbe, 0x6c, 0xaf, 0x13, 0x3f, 0xac, 0x40, 0xd7, 0x3e,
  0x1b, 0xdc, 0x4b, 0xbe, 0x34, 0x3d, 0xb7, 0xbd, 0xf1, 0x29, 0xaa, 0x3e,
  0x55, 0x47, 0x8b, 0xbf, 0xdb, 0x37, 0x97, 0x3e, 0x8b, 0x49, 0xc4, 0xbe,
  0x29, 0xc5, 0xbe, 0x3e, 0x28, 0xc8, 0xc6, 0xbf, 0x85, 0x3c, 0x4e, 0xbf,
  0x67, 0x3e, 0xca, 0xbf, 0xee, 0x9f, 0xeb, 0xbe, 0xa7, 0xed, 0xbf, 0xbd,
  0x4f, 0x9b, 0xa6, 0x3e, 0x93, 0x5f, 0xdf, 0xbc, 0xdf, 0x69, 0xfb, 0xbe,
  0x35, 0x1a, 0x16, 0xc0, 0x13, 0x5d, 0x88, 0xbe, 0x3a, 0x91, 0x3f, 0xbc,
  0xc6, 0xd7, 0xd1, 0x3e, 0xda, 0x0b, 0x5a, 0xbf, 0xaf, 0xab, 0xf9, 0xbd,
  0x5b, 0xbd, 0x6d, 0x3f, 0x41, 0x32, 0x8e, 0x3e, 0xd2, 0x81, 0x32, 0xbf,
  0x94, 0xba, 0x86, 0xbd, 0xc9, 0x53, 0x89, 0x3e, 0xcd, 0x93, 0x02, 0xbd,
  0x4c, 0x34, 0x4c, 0x3e, 0x27, 0xb5, 0xd1, 0x3e, 0xdd, 0x92, 0x07, 0x3f,
  0x15, 0x76, 0x11, 0xbf, 0x9a, 0x64, 0x1f, 0x3f, 0x41, 0xe6, 0xb7, 0x3e,
  0xa5, 0xb6, 0x07, 0x3f, 0x6a, 0xb0, 0xd1, 0xbe, 0xf9, 0xb5, 0xbe, 0xbf,
  0x37, 0xd6, 0xb4, 0xbd, 0xec, 0x5d, 0x5b, 0x3f, 0x8b, 0x15, 0xbb, 0xbf,
  0x7b, 0x4f, 0x12, 0xbf, 0x47, 0x83, 0xef, 0x3e, 0xba, 0x84, 0x0d, 0x3f,
  0x3f, 0x36, 0xb2, 0xbe, 0xdd, 0xe2, 0xb5, 0x3e, 0x52, 0x79, 0x8d, 0xbf,
  0xfa, 0xe0, 0x69, 0xbf, 0x42, 0x5c, 0xca, 0x3e, 0xff, 0xb1, 0x8d, 0xbf,
  0x36, 0x3d, 0xe9, 0xbe, 0xe3, 0xe6, 0x2f, 0x3e, 0x73, 0x36, 0x18, 0xbd,
  0x12, 0xd9, 0x24, 0xbe, 0x27, 0xa8, 0xfd, 0x3e, 0x16, 0x03, 0x8f, 0x3e,
  0x52, 0x98, 0xeb, 0xbe, 0xe1, 0x23, 0x40, 0x3e, 0x8f, 0xe6, 0x8f, 0xbe,
  0xee, 0xd0, 0xac, 0x3e, 0x4a, 0x95, 0xc4, 0xbf, 0x82, 0x05, 0x5b, 0x3e,
  0x81, 0x47, 0x8d, 0xbf, 0xb9, 0x0e, 0x2d, 0xbe, 0x24, 0x00, 0x7c, 0xbd,
  0xf7, 0x57, 0xb8, 0xbc, 0xc5, 0x18, 0x14, 0x3f, 0x33, 0x8b, 0x41, 0xbf,
  0xd5, 0x8a, 0xcf, 0xbd, 0xd7, 0xf9, 0x5e, 0x3f, 0x09, 0x5c, 0x0e, 0xbf,
  0xd2, 0x93, 0x48, 0x3f, 0xe9, 0xdf, 0x7f, 0xbe, 0x7b, 0x9a, 0x1f, 0xbf,
  0x8b, 0x4e, 0x63, 0x3f, 0xd1, 0x11, 0x14, 0x3e, 0xe7, 0x43, 0xcc, 0x3d,
  0x24, 0x6f, 0x30, 0x3d, 0xcf, 0x75, 0x56, 0xbd, 0x4d, 0xba, 0x71, 0xbf,
  0x20, 0x0e, 0xfd, 0x3e, 0x1e, 0x06, 0xe9, 0xbd, 0xcc, 0x20, 0xa1, 0xbf,
  0xe7, 0x1c, 0x2e, 0xbf, 0xe9, 0xe8, 0xd0, 0x3e, 0x7e, 0xb6, 0x89, 0xbf,
  0x43, 0x5f, 0xd3, 0xbf, 0x40, 0xf6, 0x85, 0xbe, 0x67, 0x0f, 0x05, 0xbf,
  0xf6, 0xb8, 0xbf, 0xbf, 0x65, 0x12, 0x85, 0x3d, 0xac, 0x64, 0xc4, 0xbd,
  0x81, 0xd2, 0xca, 0xbe, 0xe7, 0x0d, 0xff, 0xbe, 0xca, 0x16, 0xfa, 0x3d,
  0x0e, 0x7a, 0x42, 0x3f, 0x75, 0xbc, 0xc9, 0x3d, 0x46, 0x8f, 0x03, 0x3f,
  0x5d, 0x6f, 0x28, 0xbd, 0xd1, 0x07, 0x4f, 0x3f, 0xf9, 0x88, 0x7a, 0xbf,
  0x81, 0xae, 0xf1, 0xbf, 0xb5, 0x85, 0xfc, 0x3e, 0x33, 0xcb, 0xbf, 0x3f,
  0x1d, 0x05, 0xd5, 0xbf, 0x66, 0x28, 0xfa, 0xbf, 0x8b, 0xdf, 0x4c, 0x3f,
  0xa0, 0x83, 0x24, 0x3e, 0x8e, 0x65, 0x1d, 0xbd, 0x2c, 0x6b, 0x77, 0x3c,
  0x62, 0xca, 0xb3, 0xbf, 0xc3, 0x91, 0x9c, 0xbf, 0x67, 0x9a, 0x3b, 0x3f,
  0x57, 0xb3, 0xd5, 0xbf, 0x87, 0x90, 0xf6, 0xbc, 0xc7, 0x45, 0x34, 0x3f,
  0x16, 0x0f, 0x6e, 0xbe, 0x75, 0xe0, 0xc9, 0xbe, 0xcc, 0x56, 0x4c, 0x3f,
  0xa1, 0x28, 0x66, 0xbf, 0x96, 0xc1, 0x1b, 0x3e, 0x17, 0x1e, 0x8c, 0x3f,
  0x6a, 0xaf, 0xda, 0xbd, 0x22, 0xa5, 0xd9, 0x3d, 0xe3, 0xb6, 0x24, 0xc0,
  0x8f, 0xf4, 0x9b, 0xbe, 0xb2, 0x10, 0x0d, 0xc0, 0xeb, 0x66, 0x1f, 0x3e,
  0xd2, 0x20, 0xc2, 0xbe, 0x2c, 0x3b, 0x9e, 0xbf, 0xbd, 0x2c, 0x5c, 0x3e,
  0x18, 0xad, 0x13, 0xc0, 0xb8, 0xd5, 0x35, 0xbf, 0x07, 0x3d, 0x7e, 0xbf,
  0x09, 0x96, 0xeb, 0xbf, 0x40, 0xa2, 0x07, 0x3f, 0x8b, 0xf7, 0xa1, 0xbf,
  0x7a, 0x17, 0xa3, 0xbd, 0x41, 0xde, 0x0b, 0x3e, 0xb6, 0xa7, 0x1f, 0xbf,
  0xdb, 0x48, 0x8a, 0xbe, 0xb2, 0x6f, 0xa5, 0x3c, 0xe1, 0x5d, 0x46, 0x3f,
  0x3a, 0xfa, 0x97, 0xbf, 0x2d, 0x79, 0x46, 0x3e, 0x8e, 0x15, 0xa1, 0xbd,
  0xe9, 0xc7, 0xe7, 0xbf, 0xd3, 0xd9, 0xf4, 0xbf, 0x9b, 0x87, 0xaa, 0x3f,
  0x58, 0x1d, 0x04, 0xc0, 0x1e, 0x21, 0x1b, 0xc0, 0x8d, 0x27, 0x71, 0xbf,
  0xc3, 0x01, 0x02, 0x3f, 0xea, 0xb3, 0x2d, 0x3f, 0xc2, 0x19, 0x0b, 0x3e,
  0x8f, 0x56, 0xb4, 0x3d, 0xc7, 0x85, 0x66, 0xbf, 0xa1, 0x76, 0x07, 0xbf,
  0x58, 0xea, 0x0a, 0x3e, 0x3a, 0xd5, 0x64, 0x3c, 0xcc, 0x27, 0xb0, 0xbf,
  0x5b, 0x03, 0xba, 0x3e, 0x5f, 0xc3, 0xf8, 0x3e, 0x9c, 0xb4, 0xa4, 0xbe,
  0xbb, 0x94, 0x20, 0x3e, 0x93, 0xaf, 0x9f, 0x3e, 0x76, 0x91, 0x77, 0x3e,
  0x99, 0x30, 0x0f, 0x3f, 0xe6, 0x65, 0xec, 0x3e, 0xb6, 0x97, 0xb2, 0x3e,
  0x5f, 0xeb, 0x0f, 0xbf, 0xa0, 0x91, 0x91, 0xbf, 0x50, 0xfa, 0x21, 0xc0,
  0xe0, 0x21, 0xd4, 0x3e, 0xac, 0x41, 0x07, 0xbf, 0xec, 0x31, 0xfb, 0xbf,
  0xec, 0x51, 0x4f, 0x3e, 0x6d, 0xb4, 0x8d, 0xbe, 0x9a, 0xe0, 0x98, 0xbe,
  0x60, 0x39, 0xe7, 0xbe, 0x87, 0x8f, 0xcf, 0xbf, 0xdb, 0xa8, 0x94, 0xbe,
  0x67, 0xb5, 0xe1, 0xbe, 0x82, 0x22, 0x11, 0x3f, 0x79, 0x15, 0x0a, 0xc0,
  0xd3, 0x2e, 0x52, 0xbe, 0x5e, 0x9e, 0xc3, 0x3e, 0x9b, 0x4e, 0xee, 0x3d,
  0x1a, 0xf1, 0x27, 0x3f, 0xc7, 0x22, 0xc1, 0x3e, 0xda, 0x25, 0x93, 0x3e,
  0xfa, 0xd8, 0x13, 0xc0, 0x00, 0xe8, 0xa0, 0x3e, 0xf8, 0x46, 0x91, 0x3e,
  0x7b, 0x73, 0x28, 0xc0, 0x64, 0x70, 0xa4, 0x3e, 0x34, 0xe6, 0x6a, 0xbe,
  0xae, 0x49, 0x30, 0x3f, 0xa6, 0xc6, 0xc2, 0x3e, 0xc5, 0x10, 0x7f, 0xbe,
  0x7e, 0xe2, 0x71, 0x3e, 0x9d, 0xc6, 0xee, 0xbe, 0xda, 0x84, 0x21, 0xbd,
  0xd9, 0xea, 0x14, 0x3f, 0x31, 0xbd, 0x07, 0x3f, 0x06, 0x4b, 0x1f, 0xbf,
  0xa0, 0xf6, 0x66, 0x3d, 0x3a, 0xe5, 0xeb, 0xbd, 0xae, 0xa8, 0x73, 0xbe,
  0x30, 0x2f, 0xcf, 0x3e, 0xa8, 0x7b, 0x08, 0x3f, 0x07, 0x3c, 0x56, 0xbe,
  0x7c, 0x88, 0x38, 0x3c, 0x49, 0xe7, 0x07, 0x3f, 0x20, 0x63, 0xb3, 0x3e,
  0x1d, 0x60, 0x8a, 0x3e, 0xc0, 0x94, 0x0e, 0x3f, 0xb4, 0x91, 0x47, 0x3e,
  0xce, 0x25, 0xda, 0x3e, 0x5d, 0xb9, 0xd8, 0x3e, 0x91, 0xfa, 0xea, 0xbd,
  0x14, 0x98, 0x6e, 0x3e, 0x86, 0x75, 0xe5, 0xbd, 0x06, 0xba, 0xda, 0x3e,
  0x1b, 0x1f, 0x4c, 0x3f, 0xc0, 0x68, 0x25, 0xc0, 0x60, 0x78, 0x3c, 0xbe,
  0xb2, 0x65, 0xca, 0xbc, 0x01, 0x83, 0x9b, 0xbf, 0xc5, 0x99, 0x68, 0xbf,
  0xf0, 0xc4, 0x04, 0x3f, 0xc5, 0xd6, 0x36, 0xc0, 0x6e, 0x21, 0x88, 0xbe,
  0xbb, 0xe7, 0xcf, 0x3f, 0x1e, 0x06, 0xaa, 0x3e, 0x98, 0x2a, 0x04, 0xbf,
  0x1c, 0xe8, 0x9d, 0x3d, 0xf6, 0xb6, 0x10, 0xbd, 0x66, 0x8a, 0x99, 0xbd,
  0xb2, 0x9f, 0x46, 0x3f, 0xca, 0xf3, 0x67, 0x3d, 0x42, 0x37, 0x6e, 0xbd,
  0x62, 0x4b, 0x0e, 0x3f, 0x7c, 0x8f, 0xb9, 0xbc, 0xa1, 0x02, 0x35, 0xbe,
  0x3d, 0x66, 0x19, 0x3e, 0xec, 0xbe, 0xf1, 0x3d, 0xc7, 0x7d, 0x4c, 0xbf,
  0x11, 0x64, 0x39, 0xbf, 0x42, 0xf0, 0x7a, 0x3d, 0x14, 0x3d, 0xfc, 0xbf,
  0x43, 0x28, 0x29, 0x3d, 0x08, 0x57, 0x13, 0x3f, 0xd8, 0x0d, 0x90, 0x3e,
  0x2e, 0xff, 0x97, 0x3d, 0xf8, 0x27, 0xf7, 0xbe, 0x1e, 0x87, 0x13, 0x3f,
  0xb8, 0x5b, 0x2c, 0x3e, 0xcd, 0x9e, 0x2c, 0xbf, 0x7b, 0x63, 0xf8, 0xbe,
  0x3e, 0x2f, 0xbd, 0x3e, 0x25, 0xd4, 0x47, 0xc0, 0xf9, 0xe5, 0x95, 0xbc,
  0xd1, 0xc4, 0x0c, 0xc0, 0x3a, 0x70, 0x88, 0xbd, 0x9e, 0xcb, 0x18, 0x3f,
  0xf0, 0x9a, 0xf8, 0xbf, 0x94, 0x7f, 0x8e, 0xbf, 0x35, 0x9b, 0xbc, 0xbf,
  0x75, 0x19, 0x6f, 0x3e, 0x5c, 0x75, 0xcb, 0xbe, 0x5f, 0x70, 0x8e, 0x3f,
  0x7a, 0xce, 0x07, 0xc0, 0x40, 0xdb, 0x9b, 0xbf, 0x1c, 0x99, 0xb2, 0xbf,
  0xff, 0xd8, 0xae, 0x3e, 0x52, 0xb1, 0xca, 0xbd, 0x03, 0x12, 0xd2, 0xbe,
  0x11, 0xcc, 0x4d, 0xbf, 0xf1, 0x2c, 0xd8, 0x3c, 0xab, 0x50, 0xd3, 0xbe,
  0x79, 0xad, 0x20, 0x3e, 0x3f, 0x65, 0x9d, 0xbd, 0x86, 0xd7, 0x88, 0x3e,
  0x56, 0xa4, 0x25, 0xbe, 0x58, 0x9a, 0x53, 0xbe, 0x3e, 0x84, 0xf3, 0x3e,
  0x17, 0x31, 0xde, 0x3e, 0x3d, 0x33, 0x6e, 0xbf, 0xa4, 0x3e, 0x90, 0x3e,
  0x51, 0x87, 0xd7, 0xbe, 0xf3, 0x64, 0xda, 0x3e, 0x1a, 0x08, 0x4e, 0xbf,
  0x10, 0x22, 0xb0, 0xbe, 0x46, 0xc3, 0x85, 0x3e, 0x86, 0x0f, 0x74, 0x3f,
  0xaa, 0xf8, 0x67, 0xbe, 0x9b, 0x7e, 0x8c, 0xbf, 0x22, 0x68, 0xd5, 0x3e,
  0x33, 0x6f, 0x13, 0x3e, 0x96, 0xab, 0x3c, 0xbe, 0x2d, 0x1e, 0xeb, 0xbd,
  0x4d, 0x6f, 0xa8, 0xbf, 0xce, 0xb6, 0xd8, 0xbe, 0x3f, 0x78, 0xc3, 0x3e,
  0xe5, 0x50, 0x37, 0xbf, 0xad, 0xf4, 0xbe, 0xbc, 0xdf, 0x31, 0x6e, 0x3f,
  0xd6, 0x48, 0xd4, 0xbc, 0x83, 0x7e, 0x6b, 0xbe, 0xfa, 0x27, 0xcb, 0x3e,
  0x0b, 0x75, 0x9b, 0xbd, 0x1e, 0x36, 0x72, 0xbe, 0x23, 0x68, 0x15, 0x3f,
  0x7d, 0x62, 0x1a, 0xbf, 0x9f, 0xa3, 0x6a, 0x3e, 0x03, 0x0d, 0x99, 0x3d,
  0x47, 0xaf, 0x62, 0xbe, 0xe6, 0x93, 0x6f, 0xbf, 0x76, 0x93, 0x38, 0xbe,
  0x57, 0xdb, 0xdb, 0x3d, 0xbf, 0xc3, 0x49, 0x3d, 0xe5, 0xe4, 0x08, 0x3f,
  0x28, 0x42, 0x5a, 0xbf, 0x29, 0x01, 0x31, 0xbf, 0x49, 0x8c, 0x48, 0x3d,
  0xd2, 0xbb, 0x82, 0xbf, 0xf5, 0xdb, 0xdd, 0x3d, 0xb1, 0x8c, 0xd6, 0xbe,
  0x11, 0xe0, 0xb0, 0xbe, 0x23, 0x97, 0x03, 0x3f, 0x28, 0xe5, 0x2f, 0xbe,
  0xd8, 0x6b, 0x4b, 0xbe, 0xca, 0x36, 0x70, 0xbd, 0xbd, 0xf5, 0x45, 0x3e,
  0x27, 0x19, 0x5d, 0xbf, 0x3e, 0x47, 0x60, 0x3e, 0x6a, 0x2a, 0x94, 0x3e,
  0x27, 0xae, 0xbc, 0xbe, 0x2d, 0xba, 0x51, 0xbf, 0x04, 0x27, 0x48, 0x3f,
  0x08, 0xc8, 0x90, 0xbf, 0x9f, 0x28, 0x89, 0xbe, 0xa5, 0xa4, 0xc9, 0xbe,
  0x91, 0x90, 0x78, 0xbe, 0xc0, 0xe1, 0xd5, 0x3d, 0x15, 0xba, 0x09, 0xbe,
  0xb1, 0x38, 0xfe, 0xbd, 0xd8, 0x16, 0x30, 0xbe, 0x88, 0xfb, 0xba, 0x3d,
  0x06, 0x55, 0x99, 0xbc, 0x87, 0x1a, 0x08, 0x3e, 0x54, 0xd0, 0xb3, 0xbd,
  0xb9, 0xda, 0x02, 0x3d, 0xe4, 0xb2, 0x7a, 0x3d, 0xaa, 0xbb, 0xcb, 0x3d,
  0xfe, 0x16, 0x76, 0xbe, 0x44, 0x5f, 0x14, 0x3e, 0x41, 0xb3, 0xc1, 0xbc,
  0x96, 0x81, 0x8e, 0xbe, 0xb9, 0x74, 0x08, 0xbd, 0xdb, 0xce, 0x36, 0x3e,
  0xee, 0x68, 0x85, 0xbe, 0x6e, 0xdd, 0x72, 0xbe, 0x61, 0xcb, 0x2f, 0x3e,
  0x5f, 0xbd, 0xfc, 0x3d, 0x0f, 0x8a, 0xaf, 0xbd, 0x58, 0x08, 0x0f, 0xbe,
  0x12, 0xea, 0x69, 0xbe, 0x5c, 0x2c, 0x4c, 0x3e, 0x02, 0xdf, 0x30, 0xbc,
  0xb1, 0x92, 0x31, 0x3e, 0x21, 0x51, 0xf4, 0x3d, 0x15, 0xcc, 0xac, 0xbc,
  0x6e, 0x79, 0x64, 0xbe, 0x91, 0xa1, 0x1c, 0xbe, 0x01, 0xd9, 0x59, 0x3e,
  0xe2, 0xe0, 0x11, 0x3e, 0x11, 0x54, 0xd2, 0x3c, 0x92, 0x09, 0x42, 0x3d,
  0x61, 0x21, 0x28, 0x3e, 0x2c, 0x89, 0x2f, 0x3e, 0xb7, 0xea, 0x20, 0xbe,
  0x8e, 0xb2, 0x6d, 0xbe, 0xea, 0xcd, 0x1e, 0xbe, 0x2f, 0x56, 0x88, 0xbc,
  0xb6, 0xf3, 0x8b, 0xbd, 0xb7, 0x10, 0x3d, 0x3c, 0xad, 0x09, 0x8c, 0x3c,
  0x6b, 0x64, 0x3c, 0xbe, 0x64, 0x9f, 0xbb, 0xbd, 0xec, 0x44, 0x62, 0xbe,
  0x61, 0x56, 0x82, 0x3d, 0x73, 0xf7, 0xda, 0x3c, 0x4f, 0x23, 0x69, 0xbe,
  0xeb, 0xb1, 0x72, 0xbd, 0xe9, 0xe1, 0xdf, 0xbc, 0x63, 0xd4, 0xed, 0xbd,
  0xb6, 0x9d, 0xb2, 0xbd, 0x0d, 0x09, 0x0d, 0xbc, 0x7a, 0xb9, 0x5b, 0xbd,
  0xc4, 0x2e, 0x6e, 0xbd, 0xa5, 0xce, 0x87, 0xbe, 0xb7, 0x69, 0x8b, 0xbd,
  0x30, 0xbb, 0x3d, 0xbe, 0xf0, 0x77, 0xc7, 0xbd, 0xe4, 0x92, 0x1b, 0x3d,
  0xe2, 0x8b, 0x1c, 0x3d, 0x84, 0x5d, 0x97, 0xbd, 0xeb, 0x91, 0xe0, 0xbe,
  0x9f, 0x5a, 0x14, 0xc0, 0x3d, 0x15, 0x16, 0x3e, 0x7c, 0x0f, 0x9c, 0xbf,
  0x6e, 0x19, 0x9e, 0xbf, 0x6e, 0xf2, 0x01, 0xbf, 0x79, 0xb0, 0x76, 0x3e,
  0x5f, 0x25, 0x6f, 0xbe, 0x97, 0x52, 0x8f, 0xbf, 0x56, 0xe8, 0xa6, 0x3e,
  0xf7, 0x77, 0x5e, 0x3e, 0x73, 0x03, 0x0f, 0xbf, 0xd8, 0x0b, 0x18, 0xbf,
  0xf6, 0x07, 0xf1, 0xbf, 0x26, 0xf5, 0xcb, 0xbe, 0x69, 0x75, 0xbd, 0xbe,
  0xeb, 0xe6, 0xe7, 0xbe, 0xd5, 0x52, 0xd5, 0x3d, 0x5c, 0x40, 0x4e, 0x3e,
  0x58, 0x0e, 0xa3, 0xbf, 0x4f, 0x43, 0xd7, 0xbd, 0x62, 0x5c, 0x82, 0x3e,
  0xc0, 0x12, 0x0c, 0xbe, 0x80, 0x5e, 0xc0, 0x3e, 0xdc, 0x98, 0x6b, 0xbe,
  0xfc, 0x4d, 0x73, 0xc0, 0x3d, 0x65, 0xbc, 0x3e, 0xfe, 0xd5, 0xd3, 0x3c,
  0x2a, 0x22, 0x61, 0xbf, 0x10, 0x70, 0x3f, 0x3d, 0x94, 0x1f, 0xf5, 0xbf,
  0x9d, 0x7b, 0x89, 0xbf, 0xa5, 0xdf, 0x0a, 0x3f, 0x09, 0x38, 0x27, 0xbf,
  0xe4, 0xc3, 0x04, 0xc0, 0xcf, 0x76, 0xc7, 0xbe, 0xa3, 0xa3, 0xa4, 0xbe,
  0x29, 0x85, 0x6e, 0xbe, 0xe7, 0x9e, 0x3e, 0xbf, 0xd3, 0x99, 0xe6, 0x3d,
  0x46, 0x49, 0x26, 0xc0, 0xdb, 0xbd, 0x22, 0xbe, 0x90, 0xd5, 0xb1, 0x3e,
  0xba, 0xe8, 0x92, 0xbf, 0xf8, 0xe4, 0xf6, 0xbf, 0xf4, 0xea, 0xb0, 0x3e,
  0x0c, 0x51, 0xeb, 0x3c, 0x12, 0x87, 0x88, 0x3e, 0x49, 0x99, 0x42, 0xc0,
  0x88, 0xcc, 0x22, 0xbf, 0xa4, 0x8d, 0xdf, 0xbf, 0x9d, 0xed, 0xcc, 0xbe,
  0x14, 0xc1, 0x14, 0xbf, 0x10, 0xb9, 0x82, 0x3e, 0x51, 0x54, 0x26, 0xbf,
  0xf6, 0xc9, 0xa0, 0x3d, 0x46, 0x27, 0x90, 0xc0, 0xca, 0x06, 0x51, 0xbf,
  0xd9, 0xbb, 0xb6, 0xbe, 0x52, 0x12, 0xae, 0x3e, 0xad, 0x3b, 0x05, 0xbf,
  0xab, 0x62, 0x28, 0xbf, 0x3e, 0x6d, 0x8b, 0xbf, 0x75, 0x4e, 0x85, 0xbd,
  0x62, 0x71, 0x85, 0x3f, 0xce, 0x10, 0xde, 0x3e, 0xbc, 0xda, 0x13, 0x3d,
  0x8f, 0xb7, 0x64, 0x3f, 0xed, 0x43, 0x58, 0x3f, 0xf2, 0x8e, 0x47, 0x3e,
  0xf6, 0x49, 0x2e, 0x3e, 0x29, 0xd6, 0x86, 0x3f, 0xc5, 0x03, 0xbb, 0x3e,
  0x4c, 0x79, 0x04, 0xbe, 0x33, 0x41, 0x94, 0xbe, 0x7f, 0x58, 0x9c, 0x3e,
  0x5c, 0x89, 0x5f, 0x3f, 0x11, 0xf0, 0xda, 0x3d, 0x64, 0x4f, 0x3a, 0x3e,
  0xf3, 0xe1, 0x54, 0x3f, 0x69, 0xde, 0xef, 0x3e, 0xcc, 0x65, 0x2b, 0x3e,
  0x62, 0xad, 0x97, 0x3f, 0x79, 0xab, 0x38, 0xbe, 0xd7, 0x33, 0x62, 0xbf,
  0x2f, 0x45, 0x5a, 0x3f, 0x0b, 0xc6, 0x73, 0x3f, 0x16, 0x90, 0x90, 0x3e,
  0x9f, 0x89, 0xaf, 0x3f, 0xf0, 0x62, 0x48, 0xbf, 0x50, 0xb7, 0xa7, 0x3e,
  0xaf, 0xe2, 0x68, 0x3f, 0x54, 0x42, 0x0e, 0x3f, 0x84, 0x0e, 0x23, 0xbe,
  0x7b, 0xbd, 0xff, 0xbb, 0xaa, 0x7b, 0x68, 0xbf, 0xa7, 0x22, 0xbf, 0x3d,
  0x5a, 0x39, 0xbc, 0xbb, 0x32, 0xbd, 0x25, 0xbc, 0xb2, 0x48, 0x10, 0x3f,
  0x6c, 0xdf, 0xe7, 0xbe, 0xe0, 0xc8, 0x0a, 0x3f, 0x2d, 0x71, 0x66, 0xbc,
  0x44, 0x1d, 0xd3, 0x3e, 0xf6, 0x28, 0x0f, 0x3f, 0xe9, 0xf0, 0x98, 0x3f,
  0x5e, 0xeb, 0x29, 0x3f, 0x1e, 0x6e, 0x50, 0x3f, 0xbe, 0x58, 0x6b, 0x3e,
  0xa7, 0x64, 0xde, 0x3e, 0x68, 0x88, 0x7d, 0xbd, 0x0a, 0xab, 0xb7, 0xbc,
  0x73, 0x6d, 0x39, 0xbe, 0x36, 0x4c, 0x85, 0x3e, 0xd6, 0xe6, 0xca, 0x3d,
  0x8f, 0x5a, 0xe1, 0x3e, 0xde, 0x0b, 0x80, 0x3f, 0xc6, 0x96, 0x34, 0xbf,
  0xcf, 0x21, 0x03, 0x3f, 0xee, 0xad, 0x4e, 0xbe, 0x34, 0x62, 0xd3, 0x3d,
  0xac, 0xb8, 0x08, 0x3f, 0x39, 0xba, 0x48, 0x3f, 0x20, 0xda, 0xef, 0x3b,
  0x4e, 0x57, 0xe1, 0x3e, 0xc2, 0x7b, 0x61, 0x3f, 0xe8, 0x18, 0x8b, 0x3f,
  0x09, 0x21, 0xab, 0x3e, 0x61, 0x2d, 0x12, 0xbf, 0xbb, 0x50, 0x8b, 0x3e,
  0x96, 0x4c, 0x19, 0x3f, 0x58, 0x2b, 0x0e, 0x3f, 0xf7, 0xac, 0xfc, 0x3e,
  0xce, 0x1b, 0x52, 0x3b, 0x1e, 0x2f, 0x55, 0x3e, 0x8d, 0x73, 0x41, 0x3f,
  0xf7, 0xf8, 0x20, 0x3f, 0x1b, 0xcc, 0x98, 0x3e, 0xee, 0xcc, 0xe4, 0xbd,
  0x24, 0x5b, 0x8b, 0xbd, 0x7e, 0xb9, 0xb7, 0xbc, 0x40, 0xa1, 0xe8, 0x3c,
  0x27, 0x31, 0x32, 0x3e, 0xf8, 0x04, 0xb3, 0xbe, 0xf7, 0x5a, 0x7f, 0x3e,
  0x04, 0x86, 0x02, 0x3f, 0xe9, 0x46, 0x32, 0x3f, 0x20, 0x76, 0xa9, 0x3e,
  0xdb, 0xf2, 0xbf, 0x3d, 0x4b, 0x71, 0x31, 0x3e, 0x79, 0xfa, 0x38, 0x3f,
  0xa2, 0xd0, 0x86, 0x3e, 0x21, 0xe5, 0xaf, 0x3d, 0x38, 0x28, 0x3a, 0x3e,
  0x0a, 0x35, 0x04, 0x3f, 0x91, 0x4b, 0x6d, 0x3e, 0x95, 0xcb, 0x23, 0x3f,
  0xc1, 0x2d, 0xfc, 0x3e, 0x36, 0x7e, 0x94, 0xbe, 0x6b, 0x59, 0xe6, 0xbe,
  0xf9, 0x67, 0x10, 0x3f, 0x6a, 0x79, 0x02, 0x3e, 0x1e, 0x0a, 0xaa, 0x3d,
  0x76, 0x1c, 0x50, 0xbf, 0x87, 0xc2, 0xb6, 0x3e, 0x06, 0xde, 0x97, 0xbe,
  0x39, 0xc2, 0x01, 0x3f, 0x64, 0x30, 0x0b, 0x3f, 0x8c, 0xee, 0xd8, 0x3d,
  0xd7, 0x39, 0x6d, 0x3e, 0x73, 0x03, 0x8d, 0x3e, 0xbd, 0x76, 0x5f, 0x3f,
  0xf7, 0xf1, 0x44, 0x3f, 0xb8, 0xfc, 0x1f, 0x3e, 0xa4, 0xf4, 0x51, 0x3e,
  0xc1, 0x47, 0x2b, 0x3e, 0xc0, 0x99, 0x98, 0x3e, 0xc5, 0x16, 0x7f, 0x3e,
  0x8f, 0xcd, 0xcf, 0xbe, 0xfa, 0xf3, 0x21, 0x3f, 0x73, 0xd1, 0x46, 0x3f,
  0xef, 0x40, 0x3a, 0x3e, 0x54, 0xe3, 0xa8, 0x3e, 0xa3, 0x51, 0xe0, 0x3e,
  0x84, 0x01, 0xed, 0x3e, 0xee, 0xad, 0x9d, 0xbe, 0x76, 0xa2, 0x0c, 0x3f,
  0xd8, 0xde, 0xa5, 0x3d, 0x40, 0x15, 0x0e, 0x3c, 0x38, 0x65, 0x78, 0xbe,
  0xe2, 0xff, 0x4f, 0x3f, 0x2e, 0xe3, 0x42, 0x3f, 0x0b, 0xa3, 0x43, 0xbf,
  0x25, 0x4a, 0xe7, 0xbe, 0x71, 0x62, 0x45, 0x3f, 0xfe, 0x7a, 0x42, 0xbf,
  0x8c, 0x02, 0x30, 0xbf, 0xe1, 0x15, 0x1d, 0xbf, 0x50, 0xd0, 0x3e, 0x3f,
  0x8e, 0xc2, 0xa0, 0xbf, 0xf6, 0x4e, 0x53, 0xbf, 0x85, 0x98, 0x88, 0x3f,
  0x7d, 0x8f, 0x15, 0x3f, 0xd0, 0xd0, 0xb9, 0xbe, 0xc8, 0xda, 0x28, 0xbf,
  0xaa, 0x5b, 0x71, 0xbe, 0x6a, 0x3a, 0x11, 0xbf, 0x1d, 0xb8, 0xfb, 0xbe,
  0x6e, 0x68, 0x45, 0xbf, 0x59, 0x44, 0xe8, 0x3e, 0xf6, 0xe0, 0x91, 0xbf,
  0xc4, 0x11, 0xba, 0xbe, 0x71, 0x02, 0xb2, 0x3f, 0x39, 0xf7, 0x59, 0xbf,
  0xfc, 0xbc, 0x06, 0xbf, 0x8c, 0xed, 0x62, 0x3f, 0x36, 0x99, 0x33, 0xbf,
  0x3d, 0x0c, 0x93, 0x3e, 0x94, 0x36, 0x18, 0x3f, 0xe0, 0xdf, 0x0a, 0xc0,
  0xe3, 0x69, 0x23, 0xbf, 0x1e, 0x43, 0x36, 0x3f, 0x20, 0x36, 0x3a, 0xbf,
  0x5e, 0x5d, 0x1e, 0xbf, 0x5d, 0x51, 0x3b, 0x3f, 0x97, 0x0b, 0xf3, 0x3d,
  0x24, 0x5f, 0x05, 0xbf, 0xca, 0x0f, 0x10, 0xbf, 0xbe, 0x3d, 0xa8, 0x3f,
  0x8f, 0x60, 0x48, 0xbe, 0x8c, 0x29, 0x1b, 0xbf, 0xdb, 0x89, 0x4c, 0x3f,
  0x8a, 0x06, 0x22, 0xbf, 0x6b, 0x08, 0x92, 0xbf, 0xb8, 0x83, 0xf1, 0xbe,
  0x98, 0xfb, 0xeb, 0xbe, 0x34, 0xe7, 0x0f, 0x3f, 0x59, 0x5a, 0x95, 0xbe,
  0x82, 0xbe, 0x80, 0xbf, 0x98, 0xa2, 0x50, 0x3f, 0x65, 0xcb, 0x96, 0xbe,
  0xd2, 0xdb, 0xa3, 0x3c, 0x79, 0x25, 0xd0, 0xbe, 0xc3, 0xd2, 0xf6, 0xbd,
  0xa2, 0xdc, 0x3d, 0xbf, 0x34, 0x1e, 0xc5, 0x3f, 0xcc, 0xf8, 0x35, 0xbf,
  0xe0, 0x62, 0x63, 0xbf, 0x39, 0x46, 0xb9, 0xbf, 0x38, 0x53, 0x81, 0xbf,
  0x80, 0xcc, 0x40, 0xbf, 0xd0, 0x70, 0x12, 0x3f, 0xb7, 0x67, 0x93, 0xbe,
  0xe6, 0x6c, 0x69, 0xbf, 0x89, 0xd5, 0x2e, 0xbf, 0xdb, 0xa3, 0x40, 0xbf,
  0x43, 0x31, 0xe2, 0xbd, 0x92, 0xf6, 0x6e, 0xbf, 0x7c, 0xc6, 0x4b, 0xbe,
  0xe1, 0x8a, 0x4d, 0x3e, 0x5b, 0x64, 0xc5, 0x3e, 0xa1, 0xd9, 0x92, 0x3e,
  0x4a, 0x73, 0x98, 0xbe, 0x29, 0x78, 0x13, 0x3e, 0xbf, 0xeb, 0x2b, 0xbe,
  0x99, 0xfb, 0xe1, 0xbe, 0x59, 0xf2, 0x76, 0x3e, 0x77, 0x20, 0xa3, 0xbe,
  0xee, 0x5f, 0xd5, 0x3e, 0x5b, 0xa9, 0x27, 0xbf, 0x3d, 0x9b, 0x05, 0xbe,
  0xc5, 0x78, 0x42, 0x3f, 0x49, 0x8a, 0xcc, 0xbd, 0xd4, 0x64, 0xf9, 0x3d,
  0x6a, 0xda, 0x30, 0x3e, 0x72, 0xe5, 0xeb, 0x3e, 0x7e, 0xe4, 0x20, 0xbe,
  0xa1, 0x6f, 0x43, 0x3e, 0xd5, 0x8c, 0xc4, 0x3e, 0x17, 0x51, 0x49, 0xbd,
  0xa1, 0x54, 0x3d, 0x3e, 0xe8, 0xdf, 0x02, 0xbf, 0xce, 0xf8, 0xf6, 0xbd,
  0xa9, 0xc3, 0x21, 0x3d, 0xad, 0x86, 0x83, 0x3e, 0xbe, 0xb0, 0x24, 0x3e,
  0xcc, 0xc4, 0x23, 0x3e, 0x04, 0x0a, 0xf2, 0xbe, 0x17, 0x07, 0x5f, 0x3d,
  0x02, 0x58, 0xca, 0xbd, 0x9f, 0xf7, 0x4f, 0xbf, 0x53, 0x4c, 0x0b, 0x3e,
  0xd0, 0x99, 0xea, 0x3c, 0x85, 0x41, 0x4b, 0xbf, 0x7d, 0x00, 0xda, 0x3e,
  0x70, 0xe1, 0x2c, 0x3d, 0x4a, 0x06, 0x8b, 0xbf, 0xe0, 0x37, 0x61, 0x3e,
  0xe8, 0x68, 0x3a, 0x3d, 0x9a, 0xd3, 0xaa, 0x3e, 0xa1, 0x44, 0x9c, 0xbd,
  0x9e, 0x28, 0xbd, 0xbe, 0xee, 0xc3, 0x2e, 0xbe, 0x31, 0x75, 0xf0, 0xbe,
  0xdd, 0x95, 0x7c, 0xbe, 0xc1, 0x75, 0x69, 0xbf, 0x67, 0xd3, 0xcc, 0xbd,
  0x51, 0x2a, 0xb0, 0xbc, 0x80, 0xf2, 0x9b, 0x3e, 0x22, 0x20, 0x07, 0xbf,
  0x10, 0x63, 0x0d, 0xbe, 0x5c, 0xb1, 0x93, 0xbf, 0xf2, 0x92, 0x81, 0xbe,
  0xf5, 0xb5, 0x1b, 0x3f, 0xff, 0xc2, 0x75, 0x3d, 0x67, 0xc1, 0x3f, 0xbc,
  0x71, 0x55, 0x62, 0xbf, 0x1c, 0x30, 0xa9, 0x3e, 0x89, 0xc2, 0xa6, 0x3e,
  0x7f, 0xa6, 0x0d, 0x3f, 0x4c, 0x46, 0x40, 0xbf, 0xab, 0xe4, 0x07, 0xbf,
  0x59, 0xf7, 0x1c, 0x3f, 0xdd, 0xa7, 0x23, 0xbf, 0x04, 0x9e, 0x08, 0xbf,
  0x93, 0x21, 0x26, 0xbf, 0x83, 0x5b, 0x28, 0x3f, 0x89, 0x5a, 0xf0, 0xbe,
  0x41, 0xe8, 0x21, 0xbf, 0xd2, 0xc2, 0x68, 0x3f, 0xbc, 0x10, 0x4f, 0x3e,
  0x0f, 0xb1, 0x81, 0xbe, 0x11, 0x70, 0x21, 0xbf, 0xe0, 0xed, 0xa1, 0xbe,
  0x21, 0x3c, 0x1f, 0xbf, 0x20, 0xf7, 0x94, 0xbe, 0x11, 0x6d, 0x52, 0xbf,
  0xd5, 0xbb, 0x09, 0x3f, 0xb0, 0x10, 0xc4, 0xbe, 0x57, 0x17, 0xbd, 0xbe,
  0x34, 0xea, 0x90, 0x3f, 0xe1, 0xb6, 0x55, 0xbf, 0x8b, 0xe6, 0x64, 0xbf,
  0x13, 0xc7, 0xb4, 0x3e, 0xb6, 0x53, 0xe1, 0xbe, 0x6e, 0x80, 0x73, 0x3e,
  0x8b, 0xbd, 0x0b, 0x3f, 0x70, 0x9b, 0xb8, 0xbf, 0xfb, 0xb5, 0xda, 0xbe,
  0xfa, 0xcf, 0x17, 0x3f, 0x57, 0x05, 0x24, 0xbf, 0x44, 0x0a, 0x45, 0xbf,
  0xbb, 0xb0, 0xae, 0x3e, 0x5e, 0x45, 0x75, 0xbd, 0x4f, 0x2b, 0xab, 0xbe,
  0xc9, 0x23, 0x8e, 0xbe, 0xde, 0x8c, 0x9d, 0x3f, 0x7f, 0xfe, 0xdc, 0xbe,
  0xc5, 0x97, 0xfd, 0xbe, 0xd4, 0xd7, 0x56, 0x3f, 0x65, 0xe3, 0x10, 0xbf,
  0xf3, 0x1b, 0x3b, 0xbf, 0x8a, 0x14, 0x7d, 0xbe, 0xae, 0xa6, 0xff, 0xbe,
  0x68, 0xe7, 0x1d, 0x3f, 0xf2, 0x9a, 0xfe, 0xbe, 0x87, 0xf9, 0x68, 0xbf,
  0x61, 0xb0, 0x32, 0x3f, 0x0f, 0x19, 0xc5, 0xbe, 0xc4, 0x93, 0xc0, 0xbe,
  0x2e, 0x50, 0xa5, 0xbe, 0xf2, 0x24, 0xa4, 0xbe, 0xc4, 0xc0, 0xa7, 0xbe,
  0x6d, 0x3a, 0xae, 0x3f, 0xc6, 0xed, 0x78, 0xbf, 0x78, 0xa5, 0x41, 0xbf,
  0x60, 0xc1, 0x75, 0xbf, 0xa2, 0x6a, 0x46, 0xbf, 0x2e, 0x1d, 0xe9, 0xbe,
  0xb5, 0xa9, 0x21, 0x3f, 0xb4, 0x5c, 0x09, 0xbf, 0xb5, 0xc9, 0x8a, 0xbe,
  0xb5, 0xbc, 0x25, 0xbe, 0x76, 0x77, 0x40, 0xbf, 0x2e, 0x4e, 0xed, 0xbe,
  0x58, 0xa5, 0x76, 0xc0, 0x38, 0xee, 0x98, 0xbe, 0xae, 0x7d, 0x56, 0xbf,
  0xe4, 0xdd, 0x8b, 0xbf, 0xee, 0xde, 0x97, 0xbf, 0x8e, 0x1f, 0x69, 0x3e,
  0xc0, 0xac, 0x81, 0xbd, 0x42, 0xd1, 0x7a, 0x3f, 0xb2, 0x5c, 0xaa, 0x3d,
  0xc9, 0x75, 0x90, 0x3e, 0x94, 0xcb, 0x30, 0x3f, 0xe1, 0x2c, 0x6b, 0x3e,
  0x66, 0x06, 0x63, 0xc0, 0x1c, 0x68, 0x76, 0x3f, 0xeb, 0x39, 0x7a, 0xbf,
  0x30, 0xa8, 0xb4, 0x3e, 0x30, 0x52, 0xeb, 0xbe, 0x7d, 0xfc, 0xdf, 0x3e,
  0xef, 0xf4, 0x67, 0xbf, 0xda, 0x6d, 0x80, 0xbe, 0xee, 0xd4, 0x14, 0x3f,
  0x53, 0x0d, 0x01, 0xbe, 0xc3, 0xf0, 0xdd, 0x3e, 0x23, 0x86, 0x0b, 0x3e,
  0xe3, 0x41, 0x80, 0xbf, 0x60, 0x9f, 0x6b, 0x3e, 0x7a, 0xac, 0xcd, 0xbe,
  0xa9, 0xa1, 0xe5, 0xbf, 0x30, 0xe8, 0x86, 0x3e, 0x66, 0xb8, 0xab, 0xbe,
  0xca, 0xfc, 0x05, 0xbd, 0xb6, 0xd2, 0xef, 0x3e, 0x99, 0x72, 0x20, 0x3f,
  0x1d, 0x44, 0x8f, 0xc0, 0xae, 0x39, 0x00, 0xbf, 0xf8, 0x16, 0x96, 0xbe,
  0x11, 0x02, 0x46, 0xbd, 0xec, 0xdc, 0xeb, 0x3d, 0x18, 0x76, 0x30, 0xbe,
  0x76, 0x3c, 0xb5, 0xbf, 0xde, 0x1b, 0x80, 0x3e, 0x3e, 0x87, 0xdb, 0x3d,
  0xc8, 0x0c, 0x0b, 0xc0, 0x84, 0xdd, 0x16, 0x3e, 0x46, 0x69, 0x8c, 0x3e,
  0x6d, 0xe5, 0x88, 0x3f, 0xa4, 0x59, 0xb7, 0x3d, 0x23, 0xa4, 0x60, 0xbf,
  0x09, 0xe2, 0x42, 0x3f, 0x26, 0xb1, 0x5a, 0xbf, 0x1a, 0x8d, 0x1a, 0x3e,
  0xd6, 0x9d, 0xf7, 0xbe, 0x16, 0x6f, 0xb8, 0x3d, 0x7a, 0x85, 0x5f, 0x3e,
  0xe2, 0xe9, 0xa7, 0x3f, 0x8a, 0x39, 0x84, 0xbf, 0x36, 0x6f, 0x2e, 0x3d,
  0xae, 0xd8, 0xad, 0x3e, 0xa8, 0xf7, 0x35, 0x3e, 0xb7, 0x33, 0x06, 0x3e,
  0x94, 0x78, 0x5a, 0x3c, 0x33, 0x03, 0x31, 0xbf, 0x67, 0x26, 0xe1, 0x3e,
  0xb6, 0xa9, 0x9f, 0x3e, 0x8b, 0x82, 0xe6, 0xbd, 0xd3, 0xaf, 0x3b, 0x3e,
  0xf2, 0x72, 0x1b, 0x3e, 0x89, 0x58, 0xbd, 0x3c, 0x82, 0xab, 0x0d, 0x3c,
  0x51, 0x10, 0x00, 0x3e, 0x43, 0xac, 0x7c, 0x3e, 0xb4, 0xd7, 0xd7, 0xbf,
  0x9d, 0xa4, 0xa0, 0x3e, 0x9d, 0x4a, 0x2b, 0x3e, 0xaf, 0x37, 0xaf, 0x3e,
  0xfd, 0xdb, 0x16, 0xbe, 0xa9, 0xee, 0x2e, 0xbf, 0x01, 0xbe, 0xf6, 0xbe,
  0x14, 0xc3, 0x77, 0xbe, 0x9e, 0xfc, 0x84, 0x3e, 0xd8, 0xcf, 0x13, 0x3f,
  0xd1, 0xeb, 0x39, 0x3e, 0xbd, 0x01, 0x1a, 0xbe, 0x03, 0x37, 0x8f, 0xbe,
  0x6d, 0x4c, 0xd3, 0xbc, 0x12, 0xab, 0x9b, 0x3d, 0x6c, 0xb4, 0xae, 0x3e,
  0x69, 0x0c, 0xbb, 0x3e, 0xd4, 0xf7, 0x58, 0xc0, 0x3a, 0x18, 0xf3, 0x3d,
  0xf7, 0xde, 0x47, 0xbf, 0xe8, 0xcc, 0xbe, 0x3c, 0xdb, 0x41, 0xd4, 0x3d,
  0xbc, 0xc8, 0x2f, 0xc0, 0xbd, 0x22, 0x48, 0xbf, 0xbc, 0x3d, 0x83, 0x3e,
  0xe6, 0xd1, 0x4b, 0xbe, 0xb7, 0x19, 0x1e, 0xbf, 0x9c, 0x25, 0xf4, 0xbd,
  0xc7, 0xac, 0x92, 0xbe, 0x8b, 0x90, 0x13, 0x3f, 0x7b, 0xff, 0x87, 0x3e,
  0xe5, 0xbe, 0xf4, 0x3e, 0x7a, 0xa6, 0x9b, 0xbd, 0x5a, 0xe8, 0xc4, 0xbe,
  0xd7, 0xad, 0xad, 0x3d, 0x4e, 0x25, 0xa4, 0x3e, 0xf3, 0xcc, 0xfe, 0xbf,
  0xae, 0x97, 0x4b, 0x3e, 0x8c, 0xa9, 0xba, 0xbd, 0x9c, 0xa3, 0xa9, 0x3e,
  0xfc, 0x33, 0xf0, 0xbf, 0xcb, 0x9e, 0xaf, 0xbf, 0xd6, 0xc1, 0x04, 0xc0,
  0xe1, 0xa1, 0x06, 0xbe, 0x89, 0xd2, 0xe6, 0x3d, 0xaa, 0xdf, 0xde, 0xbe,
  0x52, 0xe7, 0x6b, 0x3e, 0xc9, 0x4f, 0x8e, 0x3d, 0x56, 0x0e, 0xa2, 0xc0,
  0x6c, 0x7e, 0x19, 0xbf, 0xd3, 0x77, 0xd5, 0x3d, 0x73, 0xcc, 0xf0, 0x3d,
  0x26, 0xbb, 0x3b, 0x3f, 0xc3, 0x4a, 0xeb, 0xbe, 0x63, 0xf1, 0xe2, 0x3e,
  0x52, 0xaa, 0xd2, 0x3e, 0xcf, 0xd8, 0xa2, 0x3e, 0x64, 0x4a, 0x2a, 0xbe,
  0x32, 0x3a, 0x3e, 0x3e, 0xa5, 0xd4, 0x1f, 0xbe, 0xee, 0x47, 0x2f, 0xbe,
  0x1c, 0xbd, 0x93, 0xbe, 0x0f, 0xe2, 0x8c, 0x3d, 0xd2, 0xb0, 0xb3, 0xbe,
  0x0a, 0xe6, 0xec, 0xbf, 0x6b, 0x92, 0xc2, 0x3d, 0x1c, 0xd1, 0x96, 0xbe,
  0x87, 0xc2, 0xbf, 0x3e, 0xe0, 0xa5, 0x94, 0x3e, 0x68, 0x5e, 0x81, 0xbe,
  0x34, 0x50, 0xce, 0xbf, 0xd0, 0x84, 0x8b, 0x3e, 0x03, 0x4f, 0x19, 0xbf,
  0x63, 0x1c, 0x59, 0x3c, 0x93, 0xd8, 0x1d, 0xbf, 0x1a, 0x23, 0x0d, 0xbf,
  0x1c, 0xd8, 0xee, 0x3e, 0x5a, 0x9e, 0x1e, 0x3d, 0x02, 0xff, 0x59, 0x3f,
  0x95, 0x47, 0xcb, 0x3e, 0xb3, 0x8f, 0x18, 0x3c, 0xbf, 0xe3, 0x56, 0xbf,
  0x5a, 0xe9, 0x5c, 0xbd, 0xb0, 0x1f, 0x3b, 0xbf, 0x22, 0xd2, 0xa5, 0xbe,
  0xcb, 0xd2, 0x9a, 0xbd, 0xa1, 0x88, 0x5b, 0xbe, 0x41, 0x3b, 0xfb, 0xbf,
  0x92, 0x86, 0x6f, 0x3e, 0xb3, 0x85, 0xae, 0x3e, 0x64, 0x73, 0x80, 0xbe,
  0x77, 0x36, 0x33, 0x3e, 0x3a, 0xdb, 0xce, 0x3e, 0xf9, 0xf9, 0xbf, 0x3d,
  0xa5, 0x4e, 0xe6, 0xbe, 0xbd, 0xad, 0xea, 0x3e, 0x46, 0xf7, 0xf9, 0xbe,
  0x25, 0xcc, 0x4c, 0xbf, 0x58, 0xca, 0x7b, 0xbc, 0x89, 0xdf, 0x97, 0xbe,
  0xc8, 0x11, 0x95, 0xbe, 0x1c, 0x1c, 0x70, 0x3d, 0x7e, 0x30, 0xc0, 0xbf,
  0xc6, 0xa6, 0x31, 0x3e, 0x6f, 0xb6, 0x49, 0xbf, 0xac, 0x84, 0xa1, 0xbf,
  0xcd, 0x90, 0x6f, 0xbe, 0x96, 0x5a, 0xa4, 0xbd, 0x74, 0x5b, 0x22, 0xbe,
  0xd4, 0x8b, 0xb8, 0x3e, 0xb9, 0xd7, 0x2f, 0xbf, 0x32, 0x0c, 0xca, 0xbf,
  0x8e, 0xec, 0x6e, 0xc0, 0x2d, 0xdf, 0xcd, 0x3d, 0xd5, 0x08, 0x29, 0xbe,
  0x5b, 0xa2, 0x6b, 0x3e, 0xa4, 0x2f, 0xd6, 0xbd, 0x4d, 0x01, 0xb7, 0x3e,
  0x75, 0x1c, 0xdc, 0x3e, 0x7b, 0x94, 0x2a, 0xbe, 0xaf, 0xf6, 0x06, 0xbe,
  0xc3, 0xf4, 0x26, 0x3e, 0xb5, 0x50, 0x08, 0xbd, 0x58, 0xa6, 0xe3, 0xbc,
  0x58, 0xed, 0xc0, 0xbe, 0xf8, 0x9c, 0x89, 0xbe, 0x40, 0xc8, 0x19, 0xbd,
  0x4a, 0xaa, 0xf0, 0xbe, 0x17, 0xf9, 0xcd, 0x3d, 0xdf, 0x8e, 0x29, 0xbe,
  0xa4, 0x0a, 0xe5, 0xbe, 0xd3, 0x52, 0x2a, 0x3e, 0x94, 0x23, 0x9c, 0x3e,
  0x5f, 0xb5, 0xc9, 0x3c, 0xac, 0xb4, 0xa7, 0xbe, 0x62, 0x90, 0x35, 0xbd,
  0x24, 0x21, 0xca, 0xbc, 0xaa, 0x9e, 0x3c, 0xbd, 0x93, 0xd0, 0x60, 0xbe,
  0xcf, 0xe4, 0x44, 0x3d, 0xb4, 0xef, 0x10, 0x3e, 0x87, 0x53, 0x3d, 0x3d,
  0x1e, 0x33, 0x92, 0x3d, 0xd3, 0x4f, 0x08, 0xbd, 0xeb, 0x7d, 0x8d, 0xbe,
  0xca, 0xa4, 0xed, 0x3d, 0xc9, 0x60, 0x99, 0xbe, 0x49, 0x2d, 0x3b, 0x3c,
  0xeb, 0x75, 0x99, 0xbd, 0xf6, 0x35, 0xbf, 0xbe, 0xf0, 0x84, 0x8b, 0x3d,
  0xf6, 0x49, 0x15, 0x3f, 0xac, 0x2c, 0x18, 0xbd, 0x46, 0x15, 0x85, 0x3e,
  0x0d, 0xee, 0x5b, 0xbd, 0xe6, 0xa4, 0xe6, 0x3d, 0xed, 0x9e, 0x40, 0x3e,
  0x42, 0xc1, 0x1c, 0xbe, 0x7c, 0xdb, 0x54, 0xbe, 0xda, 0x60, 0x0f, 0xbe,
  0x11, 0x69, 0x71, 0x3e, 0x68, 0xbe, 0x86, 0x3e, 0xc7, 0x78, 0x0a, 0xbe,
  0xf8, 0xb7, 0x8b, 0xbe, 0x2a, 0xb4, 0xb8, 0x3e, 0x60, 0x6c, 0x5f, 0xbe,
  0x76, 0x62, 0xb6, 0xbe, 0x0e, 0x26, 0x77, 0x3d, 0xc4, 0x2a, 0x09, 0xbd,
  0x51, 0x62, 0xe5, 0xbb, 0x2e, 0xbd, 0xae, 0x3e, 0xfb, 0xd0, 0x68, 0xbd,
  0x08, 0xa2, 0x64, 0x3c, 0xc9, 0x2b, 0x50, 0x3c, 0x18, 0xfc, 0xc1, 0xbd,
  0x85, 0x86, 0x65, 0xbe, 0x5e, 0x74, 0x3a, 0x3d, 0x2a, 0xa8, 0xa3, 0x3e,
  0x9d, 0x8c, 0xe0, 0xbd, 0x89, 0x2e, 0x34, 0xbe, 0x47, 0xf6, 0x96, 0x3e,
  0x3b, 0xb2, 0xfa, 0x3d, 0xbb, 0xe5, 0xd5, 0xbd, 0xa2, 0xfa, 0xff, 0xff,
  0x04, 0x00, 0x00, 0x00, 0x00, 0x03, 0x00, 0x00, 0x0f, 0x5f, 0x93, 0x3f,
  0xd9, 0x04, 0xdb, 0x3e, 0x30, 0x4e, 0x25, 0xbf, 0x4d, 0xf4, 0x57, 0x3f,
  0x91, 0x54, 0x4a, 0x3d, 0xbc, 0xe0, 0x70, 0x3f, 0x0e, 0xe9, 0x5b, 0x3e,
  0xe5, 0xed, 0x98, 0x3f, 0xb4, 0xd1, 0xed, 0xbf, 0xe6, 0x58, 0x88, 0x3e,
  0x9f, 0xbc, 0x96, 0x3e, 0x0c, 0xd8, 0x02, 0x3f, 0xb2, 0x46, 0xa6, 0xbe,
  0x21, 0x4c, 0xa6, 0x3f, 0xc5, 0x0b, 0x2b, 0x3e, 0xc6, 0x37, 0x99, 0xbe,
  0xf5, 0x26, 0xa8, 0x3f, 0x65, 0xd8, 0x15, 0x3e, 0x55, 0x97, 0xac, 0xbc,
  0x64, 0x99, 0x85, 0x3f, 0x89, 0xbe, 0xac, 0xbc, 0x0e, 0xd0, 0xe3, 0xbd,
  0x50, 0xe4, 0xca, 0xbe, 0xb2, 0x02, 0xa9, 0x3e, 0x21, 0xf2, 0xa4, 0xbf,
  0xc1, 0x5b, 0xa2, 0xbf, 0x8f, 0x8b, 0x89, 0x3e, 0xa5, 0x0f, 0x19, 0xbf,
  0x9b, 0x3c, 0x01, 0xbf, 0xab, 0x5e, 0x87, 0xc0, 0x5c, 0x7f, 0x19, 0x3f,
  0xc4, 0xbe, 0xf2, 0xbe, 0xc0, 0x26, 0xe2, 0xbf, 0x71, 0x32, 0x84, 0xbf,
  0xda, 0x3b, 0x6f, 0xbe, 0x0a, 0xe9, 0x03, 0xbf, 0x59, 0x24, 0x84, 0x3f,
  0xdc, 0xf1, 0x85, 0xbf, 0x6e, 0xc5, 0xcb, 0xbe, 0xae, 0x50, 0xbe, 0x3f,
  0xa7, 0x31, 0x1e, 0xbf, 0x3b, 0xd5, 0xf9, 0x3e, 0xee, 0x17, 0x5a, 0x3f,
  0x90, 0xaf, 0x88, 0x3f, 0x67, 0xd3, 0x0a, 0xc0, 0x02, 0x26, 0x72, 0xbf,
  0x95, 0x55, 0x7a, 0xbf, 0x92, 0x0d, 0x23, 0xc0, 0xfd, 0x1c, 0xae, 0x3f,
  0xef, 0x2d, 0xf7, 0x3b, 0xa8, 0x62, 0xdf, 0x3e, 0xa9, 0x9f, 0x10, 0x3d,
  0xdd, 0xb3, 0xa7, 0xbf, 0x4e, 0xb4, 0x79, 0xbe, 0x88, 0xd1, 0xb2, 0xbe,
  0x44, 0x52, 0xc2, 0x3e, 0x2f, 0x8e, 0x36, 0x3f, 0x6c, 0x3c, 0x82, 0xbf,
  0xb4, 0x7d, 0x84, 0xbf, 0x44, 0xab, 0x45, 0x3f, 0xe4, 0x7e, 0x12, 0xc0,
  0xbe, 0x2e, 0x42, 0x3f, 0xa2, 0x5f, 0x0b, 0xbf, 0x0e, 0x02, 0xc9, 0x3e,
  0x59, 0xb2, 0xda, 0xbb, 0xdb, 0xe5, 0xd9, 0xbf, 0xef, 0x0b, 0x7d, 0x3e,
  0xd8, 0x71, 0x54, 0xbf, 0x59, 0xc8, 0x81, 0x3e, 0x7f, 0xae, 0x96, 0x3d,
  0x20, 0xa5, 0xe6, 0x3e, 0x48, 0xed, 0xf8, 0x3f, 0x31, 0xbe, 0xc1, 0x3e,
  0x3b, 0x60, 0xdc, 0xbe, 0x75, 0x9b, 0xea, 0x3e, 0x27, 0xcb, 0xa3, 0x3d,
  0x9e, 0xed, 0x80, 0xbf, 0x5d, 0xc8, 0x01, 0xbe, 0xe5, 0xbf, 0xe7, 0x3d,
  0xfe, 0x35, 0x37, 0x3f, 0x8d, 0x35, 0xbe, 0xc0, 0x40, 0xb2, 0x38, 0xbe,
  0xf5, 0x83, 0xbf, 0xbd, 0x94, 0xdf, 0x35, 0x3f, 0x05, 0xdb, 0x82, 0xbf,
  0x99, 0xbd, 0x27, 0xbf, 0x1e, 0x6f, 0x89, 0x3f, 0xa8, 0x5e, 0x86, 0x3d,
  0x55, 0xb8, 0xd5, 0x3f, 0xd3, 0x97, 0x09, 0xbe, 0xe6, 0xb7, 0xa6, 0xbe,
  0x01, 0xe3, 0x0b, 0xbe, 0xd7, 0x60, 0x97, 0x3e, 0x4d, 0x2c, 0x7a, 0x3f,
  0xa6, 0x89, 0x6a, 0x3e, 0x52, 0x8e, 0x3c, 0xc0, 0x14, 0x9d, 0x07, 0xc0,
  0x94, 0xe0, 0x3e, 0x3f, 0x55, 0x8b, 0xd9, 0xbf, 0x0c, 0x01, 0xbd, 0xbd,
  0xf1, 0x9a, 0xa5, 0xbe, 0x9d, 0x6d, 0x15, 0x3f, 0xdc, 0x00, 0xb7, 0x3f,
  0x3a, 0xec, 0x8a, 0xbf, 0x7c, 0xd5, 0x46, 0xbf, 0x9c, 0xb3, 0x39, 0x3f,
  0xa7, 0x19, 0x96, 0x3f, 0xe9, 0xbc, 0x0e, 0xc0, 0xe7, 0x51, 0x94, 0x3f,
  0xa4, 0x4d, 0xa6, 0xbd, 0x88, 0xd7, 0x40, 0x3f, 0xd6, 0x37, 0x2e, 0x3f,
  0xd0, 0x84, 0xa8, 0x3d, 0xbb, 0xb1, 0xe5, 0xbf, 0xd7, 0xd9, 0x9a, 0x3f,
  0x56, 0x10, 0x96, 0xbe, 0x97, 0x50, 0xcd, 0x3d, 0xba, 0x6c, 0xcd, 0xbf,
  0x0d, 0x2c, 0x71, 0x3f, 0x96, 0x7d, 0x66, 0xbe, 0x9b, 0x72, 0xa5, 0x3e,
  0xe5, 0x48, 0x14, 0x3e, 0xdb, 0xfb, 0x1e, 0x3f, 0xac, 0x06, 0x8d, 0x3f,
  0x53, 0x09, 0x7a, 0x3f, 0x24, 0xbf, 0xa9, 0xbe, 0xa8, 0xc1, 0xf4, 0xbf,
  0x8a, 0x43, 0x71, 0xbf, 0x72, 0x6b, 0x9c, 0x3f, 0x23, 0x0c, 0x30, 0x3f,
  0x65, 0x78, 0x4c, 0xbf, 0xad, 0xcb, 0x01, 0x3f, 0xb4, 0xe0, 0x52, 0x3d,
  0x33, 0x42, 0xde, 0x3f, 0xdd, 0x17, 0x55, 0xbe, 0xa1, 0xfa, 0x91, 0x3e,
  0x04, 0xa6, 0x00, 0xbf, 0x92, 0xbf, 0xa4, 0xc0, 0xcc, 0xc1, 0x04, 0x3f,
  0x98, 0xfa, 0x15, 0xbf, 0xbe, 0xe3, 0xc7, 0x3e, 0x61, 0xa0, 0xf0, 0xbf,
  0x61, 0x8b, 0x91, 0xbf, 0x0d, 0x3e, 0x59, 0xbf, 0x1b, 0x83, 0x31, 0x3f,
  0x32, 0x2b, 0xe1, 0xbe, 0x97, 0xda, 0x34, 0x3e, 0xfc, 0xb2, 0x5c, 0x3d,
  0xa7, 0x8a, 0xd6, 0x3e, 0xb1, 0x03, 0x8c, 0xc0, 0x5a, 0x23, 0xca, 0xbf,
  0x94, 0x9d, 0xfc, 0xbe, 0x7b, 0x74, 0x40, 0xc0, 0x25, 0xe3, 0xac, 0x3f,
  0x8b, 0x9b, 0x2a, 0x3e, 0x01, 0x1a, 0x09, 0xc0, 0xb4, 0xe8, 0x15, 0x3f,
  0xa4, 0xa9, 0xb2, 0xbf, 0x79, 0xb3, 0xd7, 0xbe, 0x70, 0x50, 0x99, 0xba,
  0x55, 0x64, 0x90, 0x3f, 0xaa, 0xd1, 0x17, 0x3f, 0xde, 0xba, 0xf4, 0x3d,
  0x47, 0x3d, 0xed, 0xbe, 0x69, 0xa9, 0x29, 0xc0, 0xcc, 0x67, 0xd3, 0x3c,
  0x8e, 0xba, 0x8e, 0xbf, 0xb3, 0x7f, 0x42, 0xbe, 0x65, 0x90, 0xc8, 0xbf,
  0x41, 0x9a, 0x84, 0xbf, 0xde, 0x02, 0xb5, 0xbf, 0xec, 0x9b, 0x96, 0x3c,
  0xf4, 0xd0, 0x87, 0xbe, 0xc6, 0x2e, 0xdf, 0xc0, 0x47, 0x66, 0xca, 0x3f,
  0x01, 0xc4, 0x27, 0xbf, 0x33, 0xeb, 0x0f, 0x3f, 0xb0, 0xfe, 0x9f, 0xbc,
  0x7d, 0x6c, 0x91, 0xbf, 0xe6, 0x93, 0x5d, 0xbe, 0xac, 0x3f, 0x3e, 0x3e,
  0xcb, 0xf3, 0xbc, 0xbe, 0xcd, 0xd3, 0x01, 0x3e, 0xec, 0x3a, 0xce, 0x3f,
  0x2b, 0xe2, 0x18, 0xbf, 0x66, 0xd1, 0xd5, 0x3d, 0x5a, 0xe8, 0xd1, 0x3f,
  0x74, 0x73, 0x30, 0xbf, 0x6c, 0x70, 0x10, 0x3f, 0x63, 0x2a, 0x1b, 0x3d,
  0x96, 0x8f, 0xae, 0x3f, 0x92, 0x43, 0x22, 0x3f, 0xae, 0xfd, 0xff, 0xff,
  0x04, 0x00, 0x00, 0x00, 0x08, 0x00, 0x00, 0x00, 0xff, 0xff, 0xff, 0xff,
  0x03, 0x00, 0x00, 0x00, 0xc2, 0xfd, 0xff, 0xff, 0x04, 0x00, 0x00, 0x00,
  0x80, 0x00, 0x00, 0x00, 0xf6, 0xad, 0xae, 0xbc, 0x5c, 0xdf, 0x01, 0x3e,
  0x41, 0xdb, 0x4b, 0xbc, 0x7d, 0x5b, 0x3e, 0x3d, 0x8f, 0xf5, 0xde, 0x3e,
  0xe6, 0x95, 0xbe, 0x3e, 0xc3, 0x30, 0xe7, 0xbc, 0xef, 0xde, 0x8b, 0x3e,
  0x6b, 0xba, 0x3f, 0x3e, 0xa9, 0xbf, 0x88, 0xbe, 0x7e, 0xd3, 0xe7, 0xbd,
  0x14, 0xb4, 0xa8, 0xbd, 0x6e, 0x02, 0xdb, 0xbd, 0xc0, 0x45, 0xd0, 0x3e,
  0xa2, 0x8c, 0x9c, 0x3e, 0x0c, 0xff, 0xcc, 0x3d, 0x56, 0x88, 0x92, 0x3e,
  0x86, 0x9e, 0x35, 0x3f, 0xf1, 0x47, 0x23, 0xbc, 0x82, 0x8c, 0xe5, 0x3e,
  0x78, 0x16, 0xb5, 0x3e, 0xc4, 0x68, 0x90, 0xbc, 0x9b, 0xf3, 0x89, 0x3e,
  0x43, 0x39, 0xf0, 0xbd, 0x28, 0xaa, 0xaa, 0x3e, 0xff, 0x55, 0x3b, 0x3f,
  0x50, 0xfa, 0xf0, 0xbd, 0x50, 0x54, 0xfa, 0x3e, 0xd5, 0xa8, 0x1d, 0x3e,
  0xed, 0x60, 0xc7, 0x3e, 0x33, 0x96, 0x4b, 0x3e, 0xd7, 0x08, 0x02, 0xbe,
  0x4e, 0xfe, 0xff, 0xff, 0x04, 0x00, 0x00, 0x00, 0x10, 0x00, 0x00, 0x00,
  0x5e, 0x07, 0x99, 0xbe, 0x9e, 0xce, 0x45, 0x3e, 0x27, 0x18, 0x08, 0x3f,
  0x6f, 0x16, 0x72, 0xbe, 0x6a, 0xfe, 0xff, 0xff, 0x04, 0x00, 0x00, 0x00,
  0x00, 0x01, 0x00, 0x00, 0xef, 0x5e, 0x6e, 0x3e, 0xc0, 0x2f, 0xae, 0x3c,
  0x09, 0xc1, 0xb3, 0x3b, 0x6c, 0x52, 0x66, 0x3e, 0x34, 0xd8, 0xf9, 0xbb,
  0x11, 0x75, 0x9e, 0xbc, 0x7d, 0xa3, 0xa9, 0xbd, 0x4c, 0xf8, 0xa3, 0x3e,
  0x1e, 0xcc, 0x02, 0x3c, 0xcc, 0xd8, 0xfc, 0x3c, 0x03, 0x6d, 0x41, 0x3e,
  0xe8, 0xc2, 0xdb, 0x3d, 0x04, 0x99, 0x1e, 0xbd, 0xa6, 0x87, 0x29, 0xbd,
  0x79, 0x56, 0xb5, 0x3c, 0xb0, 0xeb, 0x26, 0xba, 0x60, 0xcc, 0x55, 0xbc,
  0xe7, 0x17, 0x39, 0xbd, 0x55, 0x74, 0x9f, 0x3e, 0xaf, 0x4a, 0xa3, 0x3d,
  0x91, 0x90, 0x3e, 0x3d, 0x12, 0x14, 0xb8, 0x3e, 0x52, 0x08, 0xc5, 0xbd,
  0x34, 0x4e, 0x05, 0xbe, 0x34, 0x17, 0x98, 0x3e, 0xbe, 0xef, 0xc0, 0xbc,
  0xc5, 0xcb, 0x45, 0x3d, 0x8d, 0xd9, 0x5d, 0x3e, 0x14, 0xd3, 0x2e, 0xbe,
  0x34, 0x32, 0xc0, 0x3c, 0xf5, 0x64, 0x88, 0x3e, 0x65, 0xff, 0x96, 0xbc,
  0x6b, 0x5d, 0x81, 0x3d, 0x9a, 0x7e, 0xa2, 0x3e, 0xaf, 0xee, 0x8b, 0x3c,
  0x6c, 0xac, 0xbc, 0x3c, 0x49, 0x61, 0x7e, 0xbc, 0xdd, 0xf9, 0xae, 0x3e,
  0x95, 0x5a, 0xf6, 0xbc, 0xee, 0x8b, 0x01, 0xbc, 0xe0, 0x67, 0x93, 0x3e,
  0x3a, 0x08, 0x2f, 0xbe, 0x7d, 0xd5, 0x63, 0x3d, 0xdb, 0xd9, 0xaa, 0x3d,
  0xf6, 0xc8, 0x28, 0x3d, 0x78, 0x7b, 0x2a, 0x3d, 0xb8, 0xc3, 0x61, 0x3d,
  0xfa, 0x1d, 0x9d, 0x3d, 0x13, 0x81, 0x2b, 0x3e, 0xca, 0x42, 0x15, 0x3d,
  0x71, 0x8e, 0x88, 0x3d, 0xa3, 0xd8, 0x81, 0xbc, 0x9f, 0x68, 0xed, 0x3d,
  0xb5, 0x54, 0x8c, 0xbc, 0x79, 0xab, 0x9b, 0x3e, 0xaa, 0x5c, 0x8d, 0x3a,
  0xc4, 0x70, 0x89, 0x3d, 0x24, 0x78, 0x77, 0x3d, 0x12, 0x76, 0x5a, 0xbd,
  0x14, 0x59, 0xd4, 0xbb, 0xb0, 0x65, 0x6b, 0x3e, 0x74, 0x9a, 0x0c, 0xbd,
  0x52, 0x07, 0x7a, 0xbd, 0x11, 0xba, 0xa4, 0xbc, 0x6c, 0xf9, 0xff, 0xff,
  0x70, 0xf9, 0xff, 0xff, 0x0f, 0x00, 0x00, 0x00, 0x4d, 0x4c, 0x49, 0x52,
  0x20, 0x43, 0x6f, 0x6e, 0x76, 0x65, 0x72, 0x74, 0x65, 0x64, 0x2e, 0x00,
  0x01, 0x00, 0x00, 0x00, 0x14, 0x00, 0x00, 0x00, 0x00, 0x00, 0x0e, 0x00,
  0x18, 0x00, 0x14, 0x00, 0x10, 0x00, 0x0c, 0x00, 0x08, 0x00, 0x04, 0x00,
  0x0e, 0x00, 0x00, 0x00, 0x14, 0x00, 0x00, 0x00, 0x1c, 0x00, 0x00, 0x00,
  0x50, 0x01, 0x00, 0x00, 0x54, 0x01, 0x00, 0x00, 0x58, 0x01, 0x00, 0x00,
  0x04, 0x00, 0x00, 0x00, 0x6d, 0x61, 0x69, 0x6e, 0x00, 0x00, 0x00, 0x00,
  0x05, 0x00, 0x00, 0x00, 0x14, 0x01, 0x00, 0x00, 0xc4, 0x00, 0x00, 0x00,
  0x78, 0x00, 0x00, 0x00, 0x40, 0x00, 0x00, 0x00, 0x04, 0x00, 0x00, 0x00,
  0x5a, 0xff, 0xff, 0xff, 0x1c, 0x00, 0x00, 0x00, 0x00, 0x00, 0x00, 0x09,
  0x1c, 0x00, 0x00, 0x00, 0x20, 0x00, 0x00, 0x00, 0x02, 0x00, 0x00, 0x00,
  0x00, 0x00, 0x06, 0x00, 0x08, 0x00, 0x04, 0x00, 0x06, 0x00, 0x00, 0x00,
  0x00, 0x00, 0x80, 0x3f, 0x01, 0x00, 0x00, 0x00, 0x0c, 0x00, 0x00, 0x00,
  0x01, 0x00, 0x00, 0x00, 0x0b, 0x00, 0x00, 0x00, 0x92, 0xff, 0xff, 0xff,
  0x14, 0x00, 0x00, 0x00, 0x00, 0x00, 0x00, 0x08, 0x10, 0x00, 0x00, 0x00,
  0x14, 0x00, 0x00, 0x00, 0x01, 0x00, 0x00, 0x00, 0x2c, 0xfa, 0xff, 0xff,
  0x01, 0x00, 0x00, 0x00, 0x0b, 0x00, 0x00, 0x00, 0x03, 0x00, 0x00, 0x00,
  0x0a, 0x00, 0x00, 0x00, 0x07, 0x00, 0x00, 0x00, 0x02, 0x00, 0x00, 0x00,
  0xc6, 0xff, 0xff, 0xff, 0x14, 0x00, 0x00, 0x00, 0x00, 0x00, 0x00, 0x08,
  0x14, 0x00, 0x00, 0x00, 0x18, 0x00, 0x00, 0x00, 0x01, 0x00, 0x00, 0x00,
  0xb6, 0xff, 0xff, 0xff, 0x00, 0x00, 0x00, 0x01, 0x01, 0x00, 0x00, 0x00,
  0x0a, 0x00, 0x00, 0x00, 0x03, 0x00, 0x00, 0x00, 0x09, 0x00, 0x00, 0x00,
  0x06, 0x00, 0x00, 0x00, 0x03, 0x00, 0x00, 0x00, 0x00, 0x00, 0x0e, 0x00,
  0x1a, 0x00, 0x14, 0x00, 0x10, 0x00, 0x0c, 0x00, 0x0b, 0x00, 0x04, 0x00,
  0x0e, 0x00, 0x00, 0x00, 0x1c, 0x00, 0x00, 0x00, 0x00, 0x00, 0x00, 0x08,
  0x1c, 0x00, 0x00, 0x00, 0x20, 0x00, 0x00, 0x00, 0x01, 0x00, 0x00, 0x00,
  0x00, 0x00, 0x06, 0x00, 0x08, 0x00, 0x07, 0x00, 0x06, 0x00, 0x00, 0x00,
  0x00, 0x00, 0x00, 0x01, 0x01, 0x00, 0x00, 0x00, 0x09, 0x00, 0x00, 0x00,
  0x03, 0x00, 0x00, 0x00, 0x08, 0x00, 0x00, 0x00, 0x05, 0x00, 0x00, 0x00,
  0x01, 0x00, 0x00, 0x00, 0x00, 0x00, 0x0a, 0x00, 0x0c, 0x00, 0x00, 0x00,
  0x08, 0x00, 0x04, 0x00, 0x0a, 0x00, 0x00, 0x00, 0x08, 0x00, 0x00, 0x00,
  0x0c, 0x00, 0x00, 0x00, 0x01, 0x00, 0x00, 0x00, 0x08, 0x00, 0x00, 0x00,
  0x02, 0x00, 0x00, 0x00, 0x00, 0x00, 0x00, 0x00, 0x04, 0x00, 0x00, 0x00,
  0x01, 0x00, 0x00, 0x00, 0x0c, 0x00, 0x00, 0x00, 0x01, 0x00, 0x00, 0x00,
  0x00, 0x00, 0x00, 0x00, 0x0d, 0x00, 0x00, 0x00, 0xc4, 0x04, 0x00, 0x00,
  0x58, 0x04, 0x00, 0x00, 0xe8, 0x03, 0x00, 0x00, 0x90, 0x03, 0x00, 0x00,
  0x44, 0x03, 0x00, 0x00, 0xe4, 0x02, 0x00, 0x00, 0x98, 0x02, 0x00, 0x00,
  0x4c, 0x02, 0x00, 0x00, 0xf0, 0x01, 0x00, 0x00, 0x68, 0x01, 0x00, 0x00,
  0xd8, 0x00, 0x00, 0x00, 0x60, 0x00, 0x00, 0x00, 0x04, 0x00, 0x00, 0x00,
  0x86, 0xfb, 0xff, 0xff, 0x00, 0x00, 0x00, 0x01, 0x14, 0x00, 0x00, 0x00,
  0x1c, 0x00, 0x00, 0x00, 0x1c, 0x00, 0x00, 0x00, 0x0d, 0x00, 0x00, 0x00,
  0x34, 0x00, 0x00, 0x00, 0x02, 0x00, 0x00, 0x00, 0xff, 0xff, 0xff, 0xff,
  0x04, 0x00, 0x00, 0x00, 0x6c, 0xfb, 0xff, 0xff, 0x19, 0x00, 0x00, 0x00,
  0x53, 0x74, 0x61, 0x74, 0x65, 0x66, 0x75, 0x6c, 0x50, 0x61, 0x72, 0x74,
  0x69, 0x74, 0x69, 0x6f, 0x6e, 0x65, 0x64, 0x43, 0x61, 0x6c, 0x6c, 0x3a,
  0x30, 0x00, 0x00, 0x00, 0x02, 0x00, 0x00, 0x00, 0x01, 0x00, 0x00, 0x00,
  0x04, 0x00, 0x00, 0x00, 0xde, 0xfb, 0xff, 0xff, 0x00, 0x00, 0x00, 0x01,
  0x14, 0x00, 0x00, 0x00, 0x1c, 0x00, 0x00, 0x00, 0x1c, 0x00, 0x00, 0x00,
  0x0c, 0x00, 0x00, 0x00, 0x50, 0x00, 0x00, 0x00, 0x02, 0x00, 0x00, 0x00,
  0xff, 0xff, 0xff, 0xff, 0x04, 0x00, 0x00, 0x00, 0xc4, 0xfb, 0xff, 0xff,
  0x34, 0x00, 0x00, 0x00, 0x73, 0x65, 0x71, 0x75, 0x65, 0x6e, 0x74, 0x69,
  0x61, 0x6c, 0x2f, 0x64, 0x65, 0x6e, 0x73, 0x65, 0x5f, 0x32, 0x2f, 0x4d,
  0x61, 0x74, 0x4d, 0x75, 0x6c, 0x3b, 0x73, 0x65, 0x71, 0x75, 0x65, 0x6e,
  0x74, 0x69, 0x61, 0x6c, 0x2f, 0x64, 0x65, 0x6e, 0x73, 0x65, 0x5f, 0x32,
  0x2f, 0x42, 0x69, 0x61, 0x73, 0x41, 0x64, 0x64, 0x00, 0x00, 0x00, 0x00,
  0x02, 0x00, 0x00, 0x00, 0x01, 0x00, 0x00, 0x00, 0x04, 0x00, 0x00, 0x00,
  0x52, 0xfc, 0xff, 0xff, 0x00, 0x00, 0x00, 0x01, 0x14, 0x00, 0x00, 0x00,
  0x1c, 0x00, 0x00, 0x00, 0x1c, 0x00, 0x00, 0x00, 0x0b, 0x00, 0x00, 0x00,
  0x68, 0x00, 0x00, 0x00, 0x02, 0x00, 0x00, 0x00, 0xff, 0xff, 0xff, 0xff,
  0x20, 0x00, 0x00, 0x00, 0x38, 0xfc, 0xff, 0xff, 0x4c, 0x00, 0x00, 0x00,
  0x73, 0x65, 0x71, 0x75, 0x65, 0x6e, 0x74, 0x69, 0x61, 0x6c, 0x2f, 0x64,
  0x65, 0x6e, 0x73, 0x65, 0x5f, 0x31, 0x2f, 0x4d, 0x61, 0x74, 0x4d, 0x75,
  0x6c, 0x3b, 0x73, 0x65, 0x71, 0x75, 0x65, 0x6e, 0x74, 0x69, 0x61, 0x6c,
  0x2f, 0x64, 0x65, 0x6e, 0x73, 0x65, 0x5f, 0x31, 0x2f, 0x52, 0x65, 0x6c,
  0x75, 0x3b, 0x73, 0x65, 0x71, 0x75, 0x65, 0x6e, 0x74, 0x69, 0x61, 0x6c,
  0x2f, 0x64, 0x65, 0x6e, 0x73, 0x65, 0x5f, 0x31, 0x2f, 0x42, 0x69, 0x61,
  0x73, 0x41, 0x64, 0x64, 0x00, 0x00, 0x00, 0x00, 0x02, 0x00, 0x00, 0x00,
  0x01, 0x00, 0x00, 0x00, 0x20, 0x00, 0x00, 0x00, 0xde, 0xfc, 0xff, 0xff,
  0x00, 0x00, 0x00, 0x01, 0x14, 0x00, 0x00, 0x00, 0x1c, 0x00, 0x00, 0x00,
  0x1c, 0x00, 0x00, 0x00, 0x0a, 0x00, 0x00, 0x00, 0x60, 0x00, 0x00, 0x00,
  0x02, 0x00, 0x00, 0x00, 0xff, 0xff, 0xff, 0xff, 0x40, 0x00, 0x00, 0x00,
  0xc4, 0xfc, 0xff, 0xff, 0x46, 0x00, 0x00, 0x00, 0x73, 0x65, 0x71, 0x75,
  0x65, 0x6e, 0x74, 0x69, 0x61, 0x6c, 0x2f, 0x64, 0x65, 0x6e, 0x73, 0x65,
  0x2f, 0x4d, 0x61, 0x74, 0x4d, 0x75, 0x6c, 0x3b, 0x73, 0x65, 0x71, 0x75,
  0x65, 0x6e, 0x74, 0x69, 0x61, 0x6c, 0x2f, 0x64, 0x65, 0x6e, 0x73, 0x65,
  0x2f, 0x52, 0x65, 0x6c, 0x75, 0x3b, 0x73, 0x65, 0x71, 0x75, 0x65, 0x6e,
  0x74, 0x69, 0x61, 0x6c, 0x2f, 0x64, 0x65, 0x6e, 0x73, 0x65, 0x2f, 0x42,
  0x69, 0x61, 0x73, 0x41, 0x64, 0x64, 0x00, 0x00, 0x02, 0x00, 0x00, 0x00,
  0x01, 0x00, 0x00, 0x00, 0x40, 0x00, 0x00, 0x00, 0x62, 0xfd, 0xff, 0xff,
  0x00, 0x00, 0x00, 0x01, 0x14, 0x00, 0x00, 0x00, 0x1c, 0x00, 0x00, 0x00,
  0x1c, 0x00, 0x00, 0x00, 0x09, 0x00, 0x00, 0x00, 0x34, 0x00, 0x00, 0x00,
  0x02, 0x00, 0x00, 0x00, 0xff, 0xff, 0xff, 0xff, 0x03, 0x00, 0x00, 0x00,
  0x48, 0xfd, 0xff, 0xff, 0x1a, 0x00, 0x00, 0x00, 0x73, 0x65, 0x71, 0x75,
  0x65, 0x6e, 0x74, 0x69, 0x61, 0x6c, 0x2f, 0x66, 0x6c, 0x61, 0x74, 0x74,
  0x65, 0x6e, 0x2f, 0x52, 0x65, 0x73, 0x68, 0x61, 0x70, 0x65, 0x00, 0x00,
  0x02, 0x00, 0x00, 0x00, 0x01, 0x00, 0x00, 0x00, 0x03, 0x00, 0x00, 0x00,
  0x22, 0xfe, 0xff, 0xff, 0x00, 0x00, 0x00, 0x01, 0x10, 0x00, 0x00, 0x00,
  0x10, 0x00, 0x00, 0x00, 0x08, 0x00, 0x00, 0x00, 0x28, 0x00, 0x00, 0x00,
  0x90, 0xfd, 0xff, 0xff, 0x19, 0x00, 0x00, 0x00, 0x73, 0x65, 0x71, 0x75,
  0x65, 0x6e, 0x74, 0x69, 0x61, 0x6c, 0x2f, 0x64, 0x65, 0x6e, 0x73, 0x65,
  0x5f, 0x32, 0x2f, 0x4d, 0x61, 0x74, 0x4d, 0x75, 0x6c, 0x00, 0x00, 0x00,
  0x02, 0x00, 0x00, 0x00, 0x04, 0x00, 0x00, 0x00, 0x20, 0x00, 0x00, 0x00,
  0x6a, 0xfe, 0xff, 0xff, 0x00, 0x00, 0x00, 0x01, 0x10, 0x00, 0x00, 0x00,
  0x10, 0x00, 0x00, 0x00, 0x07, 0x00, 0x00, 0x00, 0x28, 0x00, 0x00, 0x00,
  0xd8, 0xfd, 0xff, 0xff, 0x19, 0x00, 0x00, 0x00, 0x73, 0x65, 0x71, 0x75,
  0x65, 0x6e, 0x74, 0x69, 0x61, 0x6c, 0x2f, 0x64, 0x65, 0x6e, 0x73, 0x65,
  0x5f, 0x31, 0x2f, 0x4d, 0x61, 0x74, 0x4d, 0x75, 0x6c, 0x00, 0x00, 0x00,
  0x02, 0x00, 0x00, 0x00, 0x20, 0x00, 0x00, 0x00, 0x40, 0x00, 0x00, 0x00,
  0xb2, 0xfe, 0xff, 0xff, 0x00, 0x00, 0x00, 0x01, 0x10, 0x00, 0x00, 0x00,
  0x10, 0x00, 0x00, 0x00, 0x06, 0x00, 0x00, 0x00, 0x24, 0x00, 0x00, 0x00,
  0x20, 0xfe, 0xff, 0xff, 0x17, 0x00, 0x00, 0x00, 0x73, 0x65, 0x71, 0x75,
  0x65, 0x6e, 0x74, 0x69, 0x61, 0x6c, 0x2f, 0x64, 0x65, 0x6e, 0x73, 0x65,
  0x2f, 0x4d, 0x61, 0x74, 0x4d, 0x75, 0x6c, 0x00, 0x02, 0x00, 0x00, 0x00,
  0x40, 0x00, 0x00, 0x00, 0x03, 0x00, 0x00, 0x00, 0x00, 0x00, 0x16, 0x00,
  0x1c, 0x00, 0x18, 0x00, 0x17, 0x00, 0x10, 0x00, 0x0c, 0x00, 0x08, 0x00,
  0x00, 0x00, 0x00, 0x00, 0x00, 0x00, 0x07, 0x00, 0x16, 0x00, 0x00, 0x00,
  0x00, 0x00, 0x00, 0x01, 0x14, 0x00, 0x00, 0x00, 0x14, 0x00, 0x00, 0x00,
  0x05, 0x00, 0x00, 0x00, 0x00, 0x00, 0x00, 0x02, 0x28, 0x00, 0x00, 0x00,
  0x80, 0xfe, 0xff, 0xff, 0x18, 0x00, 0x00, 0x00, 0x73, 0x65, 0x71, 0x75,
  0x65, 0x6e, 0x74, 0x69, 0x61, 0x6c, 0x2f, 0x66, 0x6c, 0x61, 0x74, 0x74,
  0x65, 0x6e, 0x2f, 0x43, 0x6f, 0x6e, 0x73, 0x74, 0x00, 0x00, 0x00, 0x00,
  0x01, 0x00, 0x00, 0x00, 0x02, 0x00, 0x00, 0x00, 0x56, 0xff, 0xff, 0xff,
  0x00, 0x00, 0x00, 0x01, 0x10, 0x00, 0x00, 0x00, 0x10, 0x00, 0x00, 0x00,
  0x04, 0x00, 0x00, 0x00, 0x38, 0x00, 0x00, 0x00, 0xc4, 0xfe, 0xff, 0xff,
  0x29, 0x00, 0x00, 0x00, 0x73, 0x65, 0x71, 0x75, 0x65, 0x6e, 0x74, 0x69,
  0x61, 0x6c, 0x2f, 0x64, 0x65, 0x6e, 0x73, 0x65, 0x5f, 0x31, 0x2f, 0x42,
  0x69, 0x61, 0x73, 0x41, 0x64, 0x64, 0x2f, 0x52, 0x65, 0x61, 0x64, 0x56,
  0x61, 0x72, 0x69, 0x61, 0x62, 0x6c, 0x65, 0x4f, 0x70, 0x00, 0x00, 0x00,
  0x01, 0x00, 0x00, 0x00, 0x20, 0x00, 0x00, 0x00, 0xaa, 0xff, 0xff, 0xff,
  0x00, 0x00, 0x00, 0x01, 0x10, 0x00, 0x00, 0x00, 0x10, 0x00, 0x00, 0x00,
  0x03, 0x00, 0x00, 0x00, 0x38, 0x00, 0x00, 0x00, 0x18, 0xff, 0xff, 0xff,
  0x29, 0x00, 0x00, 0x00, 0x73, 0x65, 0x71, 0x75, 0x65, 0x6e, 0x74, 0x69,
  0x61, 0x6c, 0x2f, 0x64, 0x65, 0x6e, 0x73, 0x65, 0x5f, 0x32, 0x2f, 0x42,
  0x69, 0x61, 0x73, 0x41, 0x64, 0x64, 0x2f, 0x52, 0x65, 0x61, 0x64, 0x56,
  0x61, 0x72, 0x69, 0x61, 0x62, 0x6c, 0x65, 0x4f, 0x70, 0x00, 0x00, 0x00,
  0x01, 0x00, 0x00, 0x00, 0x04, 0x00, 0x00, 0x00, 0x00, 0x00, 0x16, 0x00,
  0x18, 0x00, 0x14, 0x00, 0x00, 0x00, 0x10, 0x00, 0x0c, 0x00, 0x08, 0x00,
  0x00, 0x00, 0x00, 0x00, 0x00, 0x00, 0x07, 0x00, 0x16, 0x00, 0x00, 0x00,
  0x00, 0x00, 0x00, 0x01, 0x10, 0x00, 0x00, 0x00, 0x10, 0x00, 0x00, 0x00,
  0x02, 0x00, 0x00, 0x00, 0x34, 0x00, 0x00, 0x00, 0x84, 0xff, 0xff, 0xff,
  0x27, 0x00, 0x00, 0x00, 0x73, 0x65, 0x71, 0x75, 0x65, 0x6e, 0x74, 0x69,
  0x61, 0x6c, 0x2f, 0x64, 0x65, 0x6e, 0x73, 0x65, 0x2f, 0x42, 0x69, 0x61,
  0x73, 0x41, 0x64, 0x64, 0x2f, 0x52, 0x65, 0x61, 0x64, 0x56, 0x61, 0x72,
  0x69, 0x61, 0x62, 0x6c, 0x65, 0x4f, 0x70, 0x00, 0x01, 0x00, 0x00, 0x00,
  0x40, 0x00, 0x00, 0x00, 0x00, 0x00, 0x16, 0x00, 0x1c, 0x00, 0x18, 0x00,
  0x00, 0x00, 0x14, 0x00, 0x10, 0x00, 0x0c, 0x00, 0x00, 0x00, 0x00, 0x00,
  0x08, 0x00, 0x07, 0x00, 0x16, 0x00, 0x00, 0x00, 0x00, 0x00, 0x00, 0x01,
  0x14, 0x00, 0x00, 0x00, 0x24, 0x00, 0x00, 0x00, 0x24, 0x00, 0x00, 0x00,
  0x01, 0x00, 0x00, 0x00, 0x40, 0x00, 0x00, 0x00, 0x03, 0x00, 0x00, 0x00,
  0xff, 0xff, 0xff, 0xff, 0x01, 0x00, 0x00, 0x00, 0x03, 0x00, 0x00, 0x00,
  0x04, 0x00, 0x04, 0x00, 0x04, 0x00, 0x00, 0x00, 0x1f, 0x00, 0x00, 0x00,
  0x73, 0x65, 0x72, 0x76, 0x69, 0x6e, 0x67, 0x5f, 0x64, 0x65, 0x66, 0x61,
  0x75, 0x6c, 0x74, 0x5f, 0x66, 0x6c, 0x61, 0x74, 0x74, 0x65, 0x6e, 0x5f,
  0x69, 0x6e, 0x70, 0x75, 0x74, 0x3a, 0x30, 0x00, 0x03, 0x00, 0x00, 0x00,
  0x01, 0x00, 0x00, 0x00, 0x01, 0x00, 0x00, 0x00, 0x03, 0x00, 0x00, 0x00,
  0x03, 0x00, 0x00, 0x00, 0x30, 0x00, 0x00, 0x00, 0x14, 0x00, 0x00, 0x00,
  0x04, 0x00, 0x00, 0x00, 0xe8, 0xff, 0xff, 0xff, 0x19, 0x00, 0x00, 0x00,
  0x00, 0x00, 0x00, 0x19, 0xf4, 0xff, 0xff, 0xff, 0x09, 0x00, 0x00, 0x00,
  0x00, 0x00, 0x00, 0x09, 0x0c, 0x00, 0x0c, 0x00, 0x0b, 0x00, 0x00, 0x00,
  0x00, 0x00, 0x04, 0x00, 0x0c, 0x00, 0x00, 0x00, 0x16, 0x00, 0x00, 0x00,
  0x00, 0x00, 0x00, 0x16
};
const unsigned int dense_model_tflite_len = 12268;
